<pad>	0
<unk>	0
<s>	0
</s>	0
▁de	-3.3967
.	-3.55371
,	-3.89001
a	-4.16045
▁şi	-4.24144
▁	-4.24752
-	-4.30469
▁în	-4.32691
▁cu	-4.47308
i	-4.47529
▁o	-4.57123
ă	-4.58124
!	-4.58793
▁un	-4.67295
▁și	-4.70801
▁a	-4.76928
e	-4.81786
▁pentru	-4.8268
▁să	-4.88075
le	-4.95124
▁este	-4.98803
▁la	-5.08078
ul	-5.27338
▁pe	-5.31158
▁care	-5.42445
▁mai	-5.58753
▁sunt	-5.60848
▁nu	-5.69906
▁se	-5.72244
▁din	-5.81678
▁ca	-5.83841
o	-5.90227
ţi	-5.96933
✨	-5.97222
▁mea	-5.97674
▁într	-5.98492
▁lor	-6.0965
ând	-6.14885
❤️	-6.15771
▁mă	-6.1684
▁ce	-6.20802
▁meu	-6.24435
▁zi	-6.26433
c	-6.36172
lor	-6.38293
🔥	-6.42908
t	-6.47266
▁am	-6.47635
▁atât	-6.47747
?	-6.48243
▁e	-6.49125
te	-6.49764
💪	-6.5046
▁prin	-6.52728
▁aceast	-6.55223
rea	-6.55948
😍	-6.56188
▁face	-6.57118
▁că	-6.57769
▁timp	-6.59385
▁simt	-6.59956
🌟	-6.60474
ează	-6.64655
l	-6.64813
m	-6.66084
ui	-6.66662
▁-	-6.67764
▁te	-6.68677
▁f	-6.6922
ți	-6.69531
ic	-6.69697
▁dar	-6.7157
▁fi	-6.72852
▁î	-6.73176
▁al	-6.73369
s	-6.73785
💥	-6.74351
▁pot	-6.76226
mai	-6.77472
▁fiecare	-6.77706
mi	-6.78642
▁când	-6.79755
▁Nu	-6.80246
💫	-6.80263
▁aceste	-6.80482
ără	-6.84283
▁A	-6.8477
▁uimitoare	-6.84795
ele	-6.85259
▁#	-6.87906
🎉	-6.88754
▁ale	-6.8979
un	-6.90073
▁Nim	-6.90946
u	-6.91503
▁ne	-6.92129
😌	-6.9261
▁"	-6.9317
▁fost	-6.93211
▁si	-6.93803
🌈	-6.94745
▁poate	-6.95182
🌞	-6.95604
▁place	-6.95862
nd	-6.97277
esc	-6.97945
▁întotdeauna	-6.98089
💕	-6.98471
▁timpul	-7.00297
▁perfect	-7.00445
▁Îm	-7.00913
▁îm	-7.01363
🌿	-7.01391
ei	-7.02265
💃	-7.03519
▁orice	-7.03724
▁cele	-7.05253
💨	-7.05508
▁vibrante	-7.05582
▁acest	-7.06836
👀	-7.07164
▁To	-7.08001
💦	-7.09501
▁E	-7.10188
▁confortabil	-7.10197
am	-7.11778
🙌	-7.12026
vă	-7.13541
💡	-7.13806
▁ziua	-7.14445
▁Art	-7.16683
▁sa	-7.16885
uri	-7.17526
🌊	-7.18631
🤩	-7.18803
😎	-7.18889
▁aduce	-7.19329
▁În	-7.19593
▁bucurie	-7.19929
▁au	-7.21521
▁perfectă	-7.22174
💯	-7.22388
▁sale	-7.23495
▁cum	-7.23889
▁vă	-7.23984
🌳	-7.24156
▁nevoie	-7.2516
▁sentiment	-7.25204
▁mare	-7.25435
🎨	-7.2554
▁fac	-7.26263
💖	-7.2637
🌍	-7.2662
🌅	-7.27585
▁plajă	-7.28392
se	-7.29005
😊	-7.29317
▁mele	-7.29323
▁are	-7.29446
▁in	-7.29647
🌸	-7.2971
💭	-7.29984
▁soare	-7.30209
▁Să	-7.30482
👌	-7.30696
▁C	-7.32162
▁după	-7.32353
▁ţară	-7.32642
▁aer	-7.32932
🏞️	-7.33117
▁mult	-7.33161
ului	-7.33883
▁bun	-7.34156
☀️	-7.34422
⚡	-7.36294
ar	-7.36832
▁nou	-7.37243
▁Mă	-7.38196
💼	-7.3841
▁O	-7.38668
area	-7.38826
▁cel	-7.4111
▁doar	-7.41199
▁mei	-7.41505
▁ai	-7.42003
▁uluitoare	-7.42361
▁bună	-7.425
▁inima	-7.42681
▁toate	-7.43069
▁bate	-7.43081
▁ta	-7.44488
▁va	-7.45345
▁sau	-7.45518
▁prietenii	-7.4576
şi	-7.46543
▁astăzi	-7.46596
▁niciodată	-7.48613
▁Am	-7.49187
▁pură	-7.49435
nori	-7.49938
▁m	-7.49962
▁artă	-7.50389
📚	-7.51825
▁adevărat	-7.5209
▁noi	-7.52122
😋	-7.52406
▁plină	-7.52738
🍃	-7.53605
▁mi	-7.53732
🚀	-7.54081
▁ei	-7.54352
▁Z	-7.54425
▁soarelui	-7.54549
💛	-7.554
💙	-7.55661
▁s	-7.55686
😄	-7.55776
🌺	-7.5592
▁toat	-7.56045
ii	-7.56198
▁asta	-7.57534
▁țară	-7.57536
💚	-7.58828
▁viaţă	-7.59357
▁fericire	-7.60066
❄️	-7.60171
️	-7.62184
▁Este	-7.62429
▁tot	-7.62762
▁rece	-7.63996
🎶	-7.64013
💻	-7.64239
▁joc	-7.64766
🌬️	-7.64814
▁lume	-7.65237
▁vară	-7.66011
🌱	-7.66544
▁caldă	-7.67607
▁cea	-7.67723
▁peisaje	-7.67812
🏠	-7.68429
ea	-7.68632
🔝	-7.6886
▁cafea	-7.68865
▁Aceast	-7.68885
▁naturii	-7.69286
▁totul	-7.69418
🗺️	-7.70487
▁aventură	-7.70577
🌌	-7.71112
▁confortabilă	-7.71577
▁ceva	-7.71882
ându	-7.72535
🎭	-7.73375
▁decât	-7.73855
▁carte	-7.74125
🌄	-7.74255
🌲	-7.74398
▁elegant	-7.74902
▁încredere	-7.75313
ind	-7.75861
👥	-7.76173
▁mereu	-7.76207
▁peste	-7.76654
▁ar	-7.77348
▁simte	-7.78095
Explorarea	-7.78227
▁Acest	-7.78451
▁De	-7.79
▁frumoase	-7.79382
▁Un	-7.79419
▁făcut	-7.7983
▁S	-7.79888
▁putere	-7.80153
."	-7.8019
▁viaţa	-7.80777
🤗	-7.80891
▁aduc	-7.81767
▁sport	-7.81956
🔍	-7.82162
▁jos	-7.82223
▁frumos	-7.82669
nişte	-7.83704
💤	-7.84017
▁lumea	-7.84062
▁puternic	-7.85885
☕	-7.85888
🌀	-7.86085
▁P	-7.86334
re	-7.86951
ing	-7.87118
🥰	-7.87248
🌃	-7.8729
👍	-7.87305
🙏	-7.88666
▁flori	-7.88701
at	-7.88946
▁Sunt	-7.89137
▁incredibil	-7.89141
▁despre	-7.89436
▁noastre	-7.89585
unci	-7.89745
🤝	-7.89913
➡️	-7.90231
🏰	-7.90924
▁viață	-7.91132
😮	-7.91247
🔄	-7.91555
eşte	-7.92078
🌴	-7.92323
▁cald	-7.92418
ri	-7.93342
▁liber	-7.93993
🌼	-7.94032
▁at	-7.94073
▁delicioase	-7.94298
▁până	-7.94298
▁excursie	-7.94344
▁plin	-7.9464
▁culori	-7.95646
r	-7.96404
▁plimbare	-7.96548
▁bune	-7.9688
▁M	-7.96963
▁efort	-7.97016
▁☀️	-7.97059
▁afară	-7.97576
▁bine	-7.98126
▁uimitor	-7.98469
▁fierbinte	-7.98687
▁cât	-7.99081
▁foar	-7.99245
▁dragoste	-7.99309
🌆	-7.9958
🖼️	-8.00138
▁vibrantă	-8.00267
▁ţări	-8.00377
🧠	-8.00528
▁sus	-8.00979
🔮	-8.0156
▁proaspăt	-8.01647
▁frumuseţea	-8.02165
▁le	-8.02296
▁creaturi	-8.02761
▁natura	-8.02868
▁mari	-8.02935
🏖️	-8.03283
spre	-8.03745
▁frumoasă	-8.03856
▁V	-8.03982
▁confortabile	-8.04145
▁dintr	-8.05313
🕰️	-8.05878
▁sub	-8.06226
🔌	-8.06397
🐾	-8.06419
▁antice	-8.06433
😱	-8.06543
▁chi	-8.06604
▁F	-8.06669
▁azi	-8.07338
▁Floarea	-8.07475
gârie	-8.08071
🏆	-8.08167
▁momente	-8.08326
▁Cu	-8.08917
▁frunze	-8.09226
▁ofer	-8.09595
▁soarele	-8.09634
🎯	-8.09881
🏢	-8.09945
▁mod	-8.10033
▁seara	-8.10657
or	-8.10752
☁️	-8.1117
▁parte	-8.11229
⛰️	-8.11234
▁zile	-8.11877
😃	-8.12193
▁cer	-8.12411
▁mine	-8.12566
🏡	-8.12671
▁plante	-8.12886
🍽️	-8.12895
▁munţi	-8.12948
▁pas	-8.13008
▁urmă	-8.13027
💪🏼	-8.13564
▁iarnă	-8.13773
ește	-8.13815
😁	-8.13866
are	-8.13924
▁moment	-8.13985
👑	-8.14095
▁nostru	-8.14426
▁călătorie	-8.14788
⏰	-8.1489
▁Soarele	-8.15128
▁🎨	-8.152
🏔️	-8.15226
🥳	-8.15433
🕊️	-8.15569
au	-8.16143
▁umple	-8.16411
▁sfârşit	-8.16414
🌧️	-8.16496
📸	-8.1673
▁apă	-8.16757
▁plaje	-8.17241
📖	-8.17278
🍴	-8.17408
ne	-8.17621
▁gata	-8.17759
▁muncă	-8.17772
▁jurul	-8.17779
▁abstractă	-8.1784
▁instrument	-8.18302
▁pizza	-8.18439
🎵	-8.18706
▁Cine	-8.19852
▁avea	-8.2052
▁noapte	-8.21074
🛠️	-8.21241
▁fie	-8.2126
▁colorate	-8.21337
🌶️	-8.21469
🌻	-8.21643
🧡	-8.21855
▁Mi	-8.21973
▁mici	-8.22165
🕺	-8.2247
💜	-8.22544
▁sushi	-8.22621
▁arta	-8.22725
▁avut	-8.23335
▁unde	-8.23781
😴	-8.24384
▁pur	-8.24563
▁🌿	-8.2464
▁oraşului	-8.24854
▁acum	-8.25068
👏	-8.25261
▁permit	-8.25511
▁adaug	-8.2672
▁poveşti	-8.26805
▁arome	-8.2685
▁stil	-8.26877
▁acasă	-8.26985
in	-8.27201
💐	-8.27344
🌎	-8.27512
🤤	-8.28103
▁printr	-8.28694
▁puterea	-8.28825
▁vis	-8.28834
▁pline	-8.28863
▁crea	-8.29215
▁petrecut	-8.29252
▁interior	-8.29482
🌙	-8.29634
🌷	-8.2974
▁Fii	-8.29793
🏛️	-8.29964
▁noastră	-8.30004
▁străluceşte	-8.30015
▁film	-8.30085
amnă	-8.30153
▁preferată	-8.30207
▁său	-8.30739
▁însorită	-8.30946
🛣️	-8.31492
🌪️	-8.31536
▁amintiri	-8.316
🖌️	-8.31737
▁Se	-8.31751
▁cerul	-8.32044
▁strălucitoare	-8.3233
▁cunoscută	-8.32496
▁elegantă	-8.32581
🚶‍♀️	-8.32649
urile	-8.3266
▁dans	-8.32693
▁merge	-8.32841
d	-8.32941
▁paradis	-8.33106
▁sufletul	-8.33169
"	-8.33258
▁🏰	-8.33334
▁dă	-8.33794
▁zgârie	-8.33862
▁zăpadă	-8.3391
🌇	-8.3416
ile	-8.34273
👫	-8.34313
🌹	-8.34887
▁Elefanţii	-8.35517
▁preferat	-8.35613
ti	-8.35722
▁vine	-8.36022
🧘‍♀️	-8.36077
⭐	-8.3633
▁departe	-8.3633
▁cre	-8.3644
▁aştept	-8.36844
💧	-8.37114
▁înse	-8.37121
🔧	-8.37239
▁parc	-8.37424
✅	-8.37443
▁prieteni	-8.376
✈️	-8.37729
👣	-8.37734
🤔	-8.38024
▁Aceste	-8.38033
🛋️	-8.38213
💎	-8.38266
mă	-8.38269
▁Ca	-8.38296
▁loc	-8.38481
▁păr	-8.38619
▁fel	-8.38771
💓	-8.388
▁culoare	-8.38811
▁diferite	-8.38931
▁absolut	-8.39523
▁ușor	-8.3965
▁vor	-8.39654
▁pace	-8.39782
▁complicate	-8.39786
▁noul	-8.40035
🕶️	-8.40038
▁briza	-8.40499
▁Delfinii	-8.405
▁simplu	-8.40501
▁cunoscut	-8.40501
🤯	-8.40514
tă	-8.40863
▁rochie	-8.41464
💞	-8.41497
▁amestec	-8.41755
📈	-8.41953
▁electric	-8.42097
😂	-8.42114
▁necesită	-8.42214
▁nimic	-8.42214
▁DIY	-8.42442
▁familie	-8.42806
👗	-8.42809
▁confort	-8.42883
▁Senzați	-8.43083
▁tău	-8.43085
y	-8.43172
▁taie	-8.432
▁off	-8.43219
▁mâncare	-8.43278
▁aventuri	-8.43648
🍹	-8.43897
▁împreună	-8.4397
▁🏙️	-8.4399
🔪	-8.44201
▁dată	-8.44734
▁fotbal	-8.44793
▁weekend	-8.44862
▁multe	-8.45202
💬	-8.45449
😲	-8.45738
▁baschet	-8.45738
▁natură	-8.45739
▁tale	-8.45868
▁căldură	-8.46639
🍲	-8.46701
▁🔥	-8.46794
▁mintea	-8.46921
✂️	-8.46971
g	-8.47281
:	-8.4754
▁compară	-8.47548
▁delicioasă	-8.47548
▁cineva	-8.4755
▁brânză	-8.47591
▁Astăzi	-8.47621
▁aici	-8.47639
ăm	-8.4776
▁versatil	-8.47789
🛍️	-8.4795
▁oraş	-8.47987
▁rezista	-8.48513
🍂	-8.48719
💃🏻	-8.49338
▁înconjurat	-8.49402
👨‍👩‍👧‍👦	-8.49416
🌡️	-8.49452
💆‍♀️	-8.49531
▁apus	-8.49623
♀️	-8.49633
▁creativitate	-8.49692
🚫	-8.49809
gă	-8.50101
✌️	-8.50248
▁muzică	-8.50326
▁gustative	-8.50327
▁dimineaţă	-8.50327
▁animale	-8.5079
▁complet	-8.50957
🏙️	-8.51045
▁elegante	-8.51244
▁Sushi	-8.51291
▁B	-8.51501
▁ape	-8.5152
▁putea	-8.51706
🌤️	-8.5191
ați	-8.52156
▁răsuflarea	-8.52222
▁adrenalina	-8.5223
▁creativitatea	-8.52878
➕	-8.52963
▁istorie	-8.53019
er	-8.53242
▁sentimentul	-8.53372
▁picioare	-8.53434
🥘	-8.53467
▁carieră	-8.53501
▁lungă	-8.53538
▁verde	-8.54127
▁prieten	-8.54291
▁familia	-8.54378
⏳	-8.5449
▁☕	-8.54519
▁simţi	-8.54547
▁spune	-8.54614
▁grădină	-8.55134
▁bucătar	-8.55135
▁fermecătoare	-8.55135
▁ceaşc	-8.55139
▁dragi	-8.55334
▁🌞	-8.55443
▁Ia	-8.55543
▁teren	-8.55692
▁bucătărie	-8.55758
▁ultim	-8.55805
▁alimente	-8.55945
✔️	-8.56128
▁grea	-8.56304
▁relaxare	-8.56529
🗣️	-8.5672
😇	-8.57107
▁proaspete	-8.57129
▁❄️	-8.57293
✍️	-8.57543
▁preferate	-8.57751
▁frumusețea	-8.58049
▁munți	-8.58136
▁formă	-8.58137
💔	-8.58497
▁nouă	-8.58525
...	-8.5875
💰	-8.58937
n	-8.59057
▁bucătări	-8.59142
▁papilele	-8.59218
▁ceai	-8.59266
▁cultura	-8.59308
▁văzut	-8.59315
▁luat	-8.5934
▁pulover	-8.59657
▁🎉	-8.59758
♥️	-8.60187
👯‍♀️	-8.60672
🗻	-8.60829
p	-8.60869
▁atingere	-8.61008
ească	-8.61051
▁minuni	-8.61057
f	-8.6106
🥾	-8.61106
▁lân	-8.61203
▁faţă	-8.61229
▁Japonia	-8.61251
▁terminat	-8.61254
▁Iub	-8.61636
▁delicate	-8.61727
▁modă	-8.61897
it	-8.62168
👖	-8.62219
▁asemenea	-8.62281
▁ploaie	-8.62281
▁📚	-8.62404
🔨	-8.62413
ta	-8.62507
😅	-8.62636
▁vibraţii	-8.62664
▁nisip	-8.62852
▁lumina	-8.6302
▁forme	-8.63078
▁energie	-8.63345
▁petrec	-8.63483
▁nivel	-8.63607
la	-8.63671
🏝️	-8.64017
🌵	-8.64044
▁🏀	-8.64148
👟	-8.64248
;	-8.6442
▁plantă	-8.64423
▁casă	-8.64443
▁Sentiment	-8.64444
▁petale	-8.64446
!"	-8.64737
💗	-8.64787
👕	-8.64845
▁vieţii	-8.64845
▁perfecte	-8.65347
▁antrenament	-8.65353
▁precizie	-8.65507
▁Abi	-8.65578
🏗️	-8.65613
▁🌸	-8.65771
▁rapid	-8.65915
🚗	-8.66012
▁unice	-8.66028
▁clasic	-8.66441
zi	-8.6676
▁vântul	-8.66767
▁experienţă	-8.66791
▁străzii	-8.66948
▁arhitectura	-8.67249
veți	-8.6738
▁dragostea	-8.67472
▁vechi	-8.67718
▁încântat	-8.67759
▁final	-8.67804
▁simbol	-8.67966
▁valurile	-8.68345
❌	-8.6867
▁puternice	-8.68718
▁maiestuoase	-8.68841
▁temple	-8.68841
▁veneraţie	-8.68856
🆕	-8.68936
▁emoţii	-8.69156
▁fascinante	-8.69917
▁yoga	-8.69977
▁lungul	-8.70186
▁merg	-8.70315
▁culorile	-8.70336
▁fericit	-8.70423
▁proiect	-8.71034
▁dulce	-8.71114
▁incredibilă	-8.71141
▁felie	-8.71141
▁oraș	-8.71241
▁pătură	-8.71266
🔊	-8.71423
▁❤️	-8.71483
▁😍	-8.7157
🌾	-8.7159
▁Bucur	-8.71607
🍁	-8.71631
🥇	-8.71886
📐	-8.71969
▁da	-8.72162
▁Ei	-8.72223
▁blugi	-8.7227
▁neegalat	-8.72289
▁sticlă	-8.72308
▁lasă	-8.72337
▁Merg	-8.72382
▁creează	-8.72476
▁inteligente	-8.727
👭	-8.72834
b	-8.72847
▁ajuta	-8.7293
▁aerul	-8.73213
🐘	-8.73224
🖤	-8.73444
▁capodopere	-8.73466
▁casa	-8.73504
cunoscuţi	-8.73597
▁bogată	-8.73902
▁muzica	-8.73916
🍵	-8.74368
▁oameni	-8.7455
▁povești	-8.74656
🚪	-8.74656
▁recunoscător	-8.74656
▁munca	-8.74688
▁vara	-8.74706
▁Inim	-8.74734
▁înainte	-8.74745
▁oferind	-8.74774
🏃‍♀️	-8.74846
▁începe	-8.75112
🧥	-8.75831
▁munte	-8.75857
▁ciocolată	-8.75861
▁stradală	-8.75861
▁planta	-8.75882
▁dat	-8.759
▁vorba	-8.76043
▁mic	-8.76553
▁duce	-8.7662
▁pâine	-8.76659
▁vin	-8.77023
▁căldura	-8.7708
▁ploioasă	-8.77081
▁pereche	-8.77082
▁luxuriante	-8.77153
▁Gat	-8.77261
💁‍♀️	-8.77309
🚶‍♂️	-8.77414
▁🏡	-8.77602
🍕	-8.78206
▁castron	-8.78315
cât	-8.78518
▁ori	-8.78665
▁drum	-8.78686
▁trăi	-8.78779
🦋	-8.78786
fel	-8.78798
▁părul	-8.78946
▁senin	-8.78955
▁lui	-8.79083
▁oamenii	-8.7951
▁recunoscătoare	-8.79565
▁spălat	-8.79614
▁noaptea	-8.79867
🎊	-8.79879
▁naturale	-8.80072
▁vibrant	-8.8027
🌨️	-8.80427
🔆	-8.80643
▁neuitat	-8.80831
▁viața	-8.80831
▁albastru	-8.80841
▁trebuie	-8.81086
📺	-8.81119
▁istorice	-8.81384
🎢	-8.81854
▁incredibile	-8.81928
▁Trebui	-8.82113
▁echipă	-8.82113
▁cacao	-8.82113
▁explozie	-8.82266
☺️	-8.82405
▁d	-8.82422
și	-8.8261
▁pune	-8.82897
▁Explor	-8.82955
▁uit	-8.83019
🚶	-8.83211
🏜️	-8.83212
▁lăsa	-8.83287
🔎	-8.83326
▁toamnă	-8.83421
▁floarea	-8.83428
▁foc	-8.83445
▁ascunse	-8.83538
▁înapoi	-8.83631
🍔	-8.83766
▁valuri	-8.83913
▁T	-8.83927
▁toc	-8.83943
😆	-8.84013
▁distractiv	-8.84157
▁maşină	-8.8424
✏️	-8.844
▁lovi	-8.84448
▁alb	-8.84511
📝	-8.84562
🧀	-8.84571
🎪	-8.84718
▁delicios	-8.84738
▁toţi	-8.84839
▁ajută	-8.85004
▁singur	-8.85013
▁fascinant	-8.85096
▁ast	-8.85108
▁Ace	-8.85116
▁drumeţii	-8.85299
▁ocean	-8.85445
▁magic	-8.85548
▁curat	-8.85551
🏃‍♂️	-8.85637
▁🚗	-8.85657
▁vedere	-8.85781
▁vreme	-8.85824
▁furtună	-8.86061
▁verzi	-8.86061
🧱	-8.86137
▁văd	-8.86185
ut	-8.86221
▁străzile	-8.8632
▁c	-8.86718
▁🏛️	-8.86738
🍅	-8.86861
▁lua	-8.86873
▁Bunici	-8.86878
📷	-8.87016
▁realitate	-8.87128
▁adrenalină	-8.87412
▁dimineaţa	-8.87413
▁zâmbet	-8.87572
▁evadare	-8.87603
▁🏞️	-8.87676
▁alt	-8.87788
▁festivaluri	-8.87846
▁transformând	-8.87876
▁🌅	-8.88012
▁proiecte	-8.88068
▁locuri	-8.88127
▁val	-8.88245
▁înaltă	-8.8832
▁🍣	-8.88453
▁aur	-8.88505
▁mâncarea	-8.88574
▁linişte	-8.88611
▁sta	-8.88736
▁deasupra	-8.88747
▁primit	-8.88778
▁condiţionat	-8.88782
▁cuibărit	-8.88782
end	-8.88801
▁Timp	-8.88812
▁D	-8.88833
▁fiorul	-8.88941
▁era	-8.89143
▁transforma	-8.89153
🪴	-8.89216
▁⚽	-8.89426
▁design	-8.8948
▁🌵	-8.89527
▁acestui	-8.89586
📜	-8.89712
▁ea	-8.89968
🤘	-8.9008
🔴	-8.90141
▁ceașcă	-8.90171
▁mâncăruri	-8.90171
🌠	-8.90405
ra	-8.90431
▁lucrurile	-8.9052
▁întreag	-8.90531
▁suculent	-8.90841
▁calde	-8.90928
x	-8.91069
🧐	-8.91214
▁🏠	-8.91435
▁emoție	-8.91579
▁instantaneu	-8.91579
▁pitoreşti	-8.91579
▁pădure	-8.91579
▁țări	-8.91579
▁îngrijire	-8.91837
🔋	-8.92026
▁drumul	-8.92034
▁locul	-8.92326
▁modern	-8.92623
🏯	-8.92641
road	-8.92959
▁trasee	-8.93008
▁încântătoare	-8.9301
▁maiestuos	-8.93011
▁decapotabilă	-8.93046
▁păduri	-8.93076
▁🌳	-8.93168
🍣	-8.93369
▁melodii	-8.93594
▁spirit	-8.93672
📏	-8.93858
▁duc	-8.93877
tor	-8.94038
▁tine	-8.94065
🎁	-8.94146
▁fericită	-8.94305
▁frumuseţe	-8.94351
🍷	-8.9439
▁pantaloni	-8.94457
🙂	-8.94457
▁devenit	-8.94511
🧳	-8.94938
▁modul	-8.94984
▁I	-8.94991
🏕️	-8.95013
🔬	-8.95044
▁umplut	-8.95092
▁cuvinte	-8.95205
▁capt	-8.95413
👊	-8.95448
A	-8.9547
▁palpitant	-8.95527
▁week	-8.95913
▁mijloc	-8.95928
▁Fotografi	-8.95977
▁gură	-8.95984
soarelui	-8.95995
😭	-8.96078
▁b	-8.96113
🔩	-8.96386
🍫	-8.96405
▁lumin	-8.96599
ez	-8.96645
😢	-8.96678
🍓	-8.96752
🍰	-8.9684
de	-8.97155
▁picnic	-8.97335
▁Pregătiți	-8.9742
▁graba	-8.97421
👩‍🍳	-8.97422
🗿	-8.97423
▁port	-8.9749
❓	-8.97747
⚙️	-8.9813
▁explor	-8.98246
▁pic	-8.98281
▁liniştită	-8.98428
🛌	-8.98499
🤪	-8.9867
▁set	-8.98792
▁Fie	-8.98873
❗	-8.98935
▁dimineață	-8.98936
▁prezintă	-8.99004
ce	-8.99009
▁bucura	-8.99097
▁ajung	-8.99534
▁plac	-8.99644
🐟	-8.99704
🌮	-9.00028
▁trecut	-9.0005
🏻	-9.00145
▁liniştit	-9.00152
🏀	-9.00248
▁înalt	-9.00288
🧩	-9.0033
▁floare	-9.00454
🛡️	-9.00467
▁basm	-9.00474
▁ruine	-9.00474
▁pufoase	-9.00474
▁cazul	-9.00477
▁epitom	-9.00478
▁Atât	-9.00508
▁Vreme	-9.00559
▁oceanului	-9.00567
▁dau	-9.00644
▁zilele	-9.00734
👨‍🍳	-9.00759
▁galbene	-9.00785
▁ade	-9.00928
▁captivante	-9.0102
▁găsi	-9.0155
ţii	-9.01551
🍳	-9.01561
🎥	-9.01689
▁mică	-9.01827
▁grădina	-9.01996
▁greu	-9.01999
🐠	-9.02012
▁foloses	-9.02036
▁neagră	-9.02036
▁viata	-9.02039
▁fructe	-9.02081
▁construi	-9.02089
▁Doar	-9.02139
▁inimile	-9.02259
supradimensionat	-9.02408
va	-9.02619
▁găsit	-9.02642
▁Bunic	-9.02715
ndu	-9.02833
ază	-9.02933
▁acele	-9.03035
▁haine	-9.03473
▁pute	-9.03496
▁acolo	-9.03623
▁stradă	-9.03623
▁uşor	-9.03623
👐	-9.03624
▁răcoritoare	-9.03624
▁Oameni	-9.03625
▁viitoare	-9.0363
▁nici	-9.03631
▁culinare	-9.03816
🍱	-9.03835
▁sociale	-9.03894
▁urbane	-9.04054
▁Cer	-9.04171
▁moda	-9.04432
👋	-9.04618
▁ma	-9.04623
🍦	-9.04749
▁asistent	-9.05237
▁cultură	-9.05237
▁ospitalitate	-9.05332
🍜	-9.05351
🤸‍♀️	-9.05417
▁maşin	-9.05454
▁N	-9.05514
▁pop	-9.05695
ate	-9.05878
▁adânc	-9.05937
▁copaci	-9.0648
🏋️‍♀️	-9.06589
▁ci	-9.06638
▁seninătate	-9.06855
▁reci	-9.06855
▁pus	-9.06862
meni	-9.06874
▁Pinguin	-9.06876
▁privelişte	-9.06876
▁Uneori	-9.06936
🎆	-9.07036
🙌🏼	-9.07116
▁L	-9.07318
▁pare	-9.07342
▁minunat	-9.07485
▁diverse	-9.07515
▁blândă	-9.0755
▁pat	-9.08195
🍀	-9.08221
▁prea	-9.0845
🍗	-9.08492
▁capodoperă	-9.08542
▁graţios	-9.08542
▁obține	-9.08542
▁vreodată	-9.08542
🔜	-9.08542
▁dejun	-9.08544
💃🕺	-9.08555
▁cumpărat	-9.08558
▁câte	-9.08581
▁Simt	-9.08604
▁simţind	-9.08617
▁orașului	-9.08638
▁piele	-9.0868
⌛	-9.08712
▁oamenilor	-9.08782
▁jocul	-9.08905
itatea	-9.09059
z	-9.09088
este	-9.09106
📱	-9.0914
▁repere	-9.09155
▁fii	-9.09175
▁oră	-9.09414
▁👖	-9.09532
👁️	-9.09545
▁farmec	-9.09652
▁bucură	-9.09677
▁modernă	-9.09755
👌🏼	-9.09968
▁eu	-9.09996
▁🍽️	-9.10092
▁🏃‍♀️	-9.10112
▁💃	-9.10166
▁senzaţi	-9.10237
🔒	-9.10237
▁uluitor	-9.10244
▁motocicleta	-9.10251
▁Ce	-9.10266
asupra	-9.10281
▁poţi	-9.10343
▁frumusețe	-9.10396
▁verii	-9.10414
🐦	-9.10432
tre	-9.10522
▁electrică	-9.10563
▁propri	-9.10891
▁lumii	-9.11024
▁gătit	-9.11139
▁ia	-9.1116
▁🍕	-9.1141
▁transport	-9.11434
eze	-9.11506
ală	-9.11655
🎎	-9.11859
▁făcând	-9.11862
▁condimente	-9.11931
🤖	-9.11938
❣️	-9.11962
▁cameră	-9.11962
▁râsete	-9.11963
▁întrece	-9.11976
🪚	-9.12
▁oriunde	-9.12008
▁capacitate	-9.12063
▁Orhideele	-9.12093
▁🛠️	-9.12338
🧣	-9.12396
▁realizare	-9.12446
▁totdeauna	-9.12717
▁acel	-9.12882
toare	-9.12923
▁acoperit	-9.12939
▁faţa	-9.1309
w	-9.13149
▁magică	-9.13313
v	-9.13432
▁înot	-9.13515
▁💪	-9.13621
▁briză	-9.13716
✋	-9.13716
▁interioară	-9.13716
▁mers	-9.13748
▁ciocan	-9.13766
▁făcându	-9.13818
▁senzație	-9.13897
▁pulovere	-9.14421
💪🏽	-9.14426
▁aroma	-9.14559
🗼	-9.14618
▁stare	-9.14677
▁🔧	-9.14979
🎬	-9.15337
🕯️	-9.15459
▁tuturor	-9.15502
▁motocicletă	-9.15516
▁lucru	-9.15622
▁tradiţii	-9.15697
▁sălbatice	-9.15718
▁🎶	-9.15824
▁🎾	-9.15828
▁uita	-9.15837
▁transformă	-9.15846
▁pre	-9.15865
▁grafic	-9.15878
▁dur	-9.16163
▁R	-9.16233
▁simţit	-9.16267
🌈✨	-9.16341
▁mână	-9.16387
☮️	-9.16572
▁curate	-9.16602
▁moderne	-9.16814
🏁	-9.16889
▁atinge	-9.17184
▁tărâm	-9.17239
es	-9.17274
🎈	-9.1728
▁aşteaptă	-9.1732
▁drăguț	-9.1732
▁software	-9.1732
▁calitate	-9.17334
▁exist	-9.17398
▁sunetul	-9.17412
▁eficient	-9.17414
vând	-9.17466
▁🗿	-9.17472
🏊‍♂️	-9.17625
🦜	-9.17628
🧹	-9.177
🛀	-9.17757
▁ni	-9.17805
👙	-9.17912
🏅	-9.17969
▁florile	-9.18075
▁folosit	-9.18157
▁spiritul	-9.18168
▁⚡	-9.18293
▁jocuri	-9.18448
⚽	-9.1859
🎩	-9.18624
▁cuptor	-9.18636
▁pasiunea	-9.18723
▁fascinantă	-9.18752
🥤	-9.18924
▁super	-9.19056
▁direct	-9.19172
▁joacă	-9.19172
▁tehnologie	-9.19172
🔛	-9.19172
▁popcorn	-9.19172
▁topping	-9.19174
🥂	-9.19256
💑	-9.19302
▁opri	-9.19321
▁fericirea	-9.19418
▁descoperi	-9.19477
▁visele	-9.19636
🎤	-9.19915
🎓	-9.19995
▁🌧️	-9.20006
▁lungi	-9.20021
▁încă	-9.20073
▁🐘	-9.20101
▁animal	-9.20144
▁spun	-9.20227
▁castele	-9.20282
▁unică	-9.20299
▁buni	-9.2033
▁castel	-9.2037
▁🌱	-9.20406
▁sala	-9.20696
▁calm	-9.20803
▁✨	-9.20951
▁legătur	-9.20991
▁grătar	-9.21058
▁revedere	-9.21058
▁unic	-9.21068
▁abilități	-9.21107
▁istoric	-9.21123
▁denim	-9.21131
▁🐬	-9.21159
👪	-9.2123
▁aducând	-9.21244
▁tare	-9.2129
▁grijă	-9.2131
🍚	-9.21336
▁minunilor	-9.2137
😔	-9.21417
▁p	-9.21486
▁naturală	-9.21505
▁🧥	-9.21551
k	-9.21886
▁ochii	-9.21943
▁co	-9.22211
▁vânt	-9.22225
🧭	-9.2235
▁cristal	-9.22442
👅	-9.22837
📅	-9.22981
▁așteaptă	-9.22981
▁duminică	-9.22981
▁Ştia	-9.22981
▁compasiune	-9.22982
🤲	-9.22982
▁ăsta	-9.22982
⚖️	-9.22984
▁👗	-9.23006
▁prima	-9.23021
▁entuziasmat	-9.23052
▁aventura	-9.23126
▁intr	-9.23174
▁companie	-9.23218
▁bucuria	-9.23451
▁căutare	-9.23596
▁transporta	-9.23864
eva	-9.23916
▁vârful	-9.24264
👧	-9.24817
🥕	-9.24875
💌	-9.24942
💝	-9.24942
▁maiestuoasă	-9.24942
▁moale	-9.24942
▁siguranţă	-9.24943
🐬	-9.24966
▁istoria	-9.2499
▁experiență	-9.25162
▁vase	-9.25389
▁farmecul	-9.25423
rii	-9.25658
▁grădini	-9.25743
▁graţie	-9.25753
sea	-9.25926
▁sprijin	-9.25927
▁înalte	-9.2599
▁bogata	-9.26064
🤙	-9.26588
▁🙏	-9.26607
🦁	-9.26629
🥦	-9.26696
💆	-9.26861
🪟	-9.2693
izionarea	-9.26942
▁tradiții	-9.26942
↔️	-9.26947
▁liniște	-9.26947
▁cină	-9.2695
amiază	-9.26951
▁scuter	-9.26967
▁seară	-9.2697
▁Perfect	-9.26982
▁curge	-9.27025
👚	-9.27059
▁valorii	-9.27059
▁deschis	-9.27059
🍿	-9.2717
▁jachet	-9.27191
▁re	-9.27307
▁iubire	-9.27384
▁mândr	-9.27759
▁captivantă	-9.27849
▁adorabil	-9.27949
🕌	-9.28158
▁🎵	-9.28187
▁îmbrăţişare	-9.28189
▁proaspătă	-9.28544
▁celor	-9.288
▁sos	-9.28937
▁camion	-9.28973
👉	-9.28974
▁Caban	-9.28983
▁mulțime	-9.28984
▁designer	-9.29124
▁masă	-9.29163
▁nesfârşite	-9.29163
▁intens	-9.29164
▁🌍	-9.29247
▁vremea	-9.29347
▁pasiune	-9.29483
▁rochii	-9.29549
▁familiei	-9.29641
ată	-9.29743
▁instrumente	-9.30013
▁vedea	-9.30031
▁între	-9.30306
▁multi	-9.30497
▁🎭	-9.30572
▁nori	-9.30577
▁Fi	-9.30708
▁simbolizeaz	-9.30875
▁folosind	-9.30988
🧼	-9.31066
▁Brazilia	-9.31066
🕒	-9.31066
🛏️	-9.31066
▁Drumeţii	-9.31067
▁magie	-9.31068
▁🌟	-9.31069
▁imaginaţia	-9.31069
▁burghiu	-9.31072
▁Privind	-9.31093
▁Flori	-9.31139
▁limpezi	-9.31252
🔭	-9.3134
▁acea	-9.31383
▁agitate	-9.31427
▁bicicleta	-9.31492
▁inteligenţa	-9.31494
▁luni	-9.31534
▁gust	-9.3156
▁colorată	-9.31566
▁sprijinul	-9.31616
▁detalii	-9.31696
🥗	-9.3172
▁îmbrățișare	-9.31773
▁liniştite	-9.32199
🏊‍♀️	-9.32294
🍛	-9.32368
▁ajunge	-9.32451
▁Aer	-9.32717
🍪	-9.32797
🏋️‍♂️	-9.3315
🗝️	-9.33152
▁energia	-9.33194
🎀	-9.33194
▁pufos	-9.33195
▁inovatoare	-9.33195
▁schimbător	-9.33206
▁maraton	-9.33214
▁🌺	-9.3329
▁gooey	-9.33304
▁inspiră	-9.3331
▁gura	-9.3334
▁terenul	-9.33361
▁cascade	-9.3337
▁dor	-9.33473
▁apusul	-9.33479
▁bunicii	-9.33499
▁blender	-9.3358
▁medicală	-9.3369
▁confortul	-9.33725
▁crocante	-9.33744
▁petrecere	-9.33758
lo	-9.33782
🤣	-9.33836
▁filtrul	-9.33866
▁emoţionantă	-9.34046
▁culturală	-9.34091
▁minune	-9.34234
✨🌟	-9.34413
▁extrem	-9.34496
os	-9.34575
▁Sta	-9.34677
▁spaţiu	-9.34938
▁spațiu	-9.34955
▁senină	-9.34979
▁📸	-9.35024
▁lux	-9.35085
💉	-9.35103
▁viitor	-9.35118
▁echipa	-9.35148
▁mese	-9.35182
▁roz	-9.35261
☔	-9.35309
🔵	-9.35312
👜	-9.35313
▁imagini	-9.35368
▁pitorească	-9.35368
🔓	-9.35368
♻️	-9.35368
▁Maşin	-9.35368
▁impact	-9.35368
▁🏔️	-9.35416
▁sesiune	-9.35428
▁peisajul	-9.3562
▁mașină	-9.35637
▁mân	-9.3569
▁magnifice	-9.35791
cum	-9.35826
▁suflet	-9.35836
▁Peisaje	-9.35851
🧊	-9.35953
💆‍♂️	-9.36023
🧶	-9.36078
🎮	-9.36115
😩	-9.36121
▁adorabile	-9.36249
▁culturi	-9.36251
şti	-9.3633
▁🌊	-9.36514
▁pui	-9.36524
eşti	-9.36595
▁🌮	-9.36636
▁călători	-9.36802
🧺	-9.36974
🏥	-9.37052
💒	-9.37207
💄	-9.37268
👃	-9.3727
▁explorez	-9.37308
▁🌻	-9.37312
▁explora	-9.37428
us	-9.37509
adevăr	-9.37579
▁ziduri	-9.37604
▁Pizza	-9.37608
▁destul	-9.37609
▁mirosul	-9.37672
▁iar	-9.37739
▁ele	-9.37851
🍝	-9.38065
▁rol	-9.38137
▁bunătate	-9.38268
🍎	-9.38345
🧘	-9.38708
✊	-9.38719
▁Experimenta	-9.3897
▁încep	-9.3898
🆒	-9.39495
▁top	-9.39688
🥬	-9.39819
▁încet	-9.39825
▁corpul	-9.39855
▁provoac	-9.39863
▁îndemână	-9.39863
▁afara	-9.39863
▁paradisul	-9.39894
▁recunoştinţă	-9.39971
▁piureuri	-9.39981
⛪	-9.40016
▁simţindu	-9.40032
▁puternică	-9.40075
▁exotice	-9.40083
▁modele	-9.40094
💪🏻	-9.40156
🙏🏼	-9.40202
🆙	-9.4025
▁inteligent	-9.40285
▁captivant	-9.40332
▁jucăuşă	-9.40514
▁încerca	-9.40517
▁🤗	-9.40534
▁artei	-9.40581
▁devine	-9.4065
🕵️‍♀️	-9.40688
▁deschise	-9.40793
me	-9.40948
▁ve	-9.41017
🥢	-9.41081
▁Călători	-9.41082
▁dure	-9.41147
▁petrece	-9.41296
▁🙌	-9.413
▁🏢	-9.41465
▁suculente	-9.41474
ilor	-9.41673
👬	-9.41719
🪄	-9.41947
▁😊	-9.42049
🖥️	-9.42119
🥁	-9.42127
🎒	-9.42167
🪂	-9.42188
▁clădire	-9.42189
▁toamna	-9.42189
▁tenis	-9.42189
▁Spune	-9.42208
▁=	-9.42241
▁Noapte	-9.42241
▁aromă	-9.42253
▁simple	-9.42277
▁mândru	-9.42304
vs	-9.42352
🏟️	-9.42373
▁🐧	-9.42459
▁acestor	-9.42516
Sora	-9.4254
▁calmant	-9.42702
▁paşnică	-9.42723
ga	-9.42952
🍉	-9.43056
⛈️	-9.43056
en	-9.43642
▁ani	-9.43659
▁devin	-9.43759
▁Suculente	-9.44001
💅	-9.44006
🥵	-9.4424
▁fața	-9.44242
▁lemn	-9.44505
⛅	-9.44506
👂	-9.4454
▁orizontul	-9.44545
▁feroce	-9.44569
▁microunde	-9.44569
😤	-9.44569
▁înfloritoare	-9.44573
▁must	-9.44577
▁Tacos	-9.44621
▁aproape	-9.44692
▁peisajului	-9.44766
▁culinară	-9.44938
▁prăjită	-9.44994
▁lacuri	-9.45064
▁obiectivele	-9.45111
h	-9.45223
▁unul	-9.45258
▁🧘‍♀️	-9.45296
▁rămâne	-9.45418
sc	-9.45455
▁şemineu	-9.45603
ni	-9.4571
st	-9.45838
ră	-9.45856
▁⛰️	-9.46021
ci	-9.46063
▁🏍️	-9.46144
▁picturi	-9.46458
👠	-9.46573
di	-9.46576
)	-9.46985
🎷	-9.46999
▁coastă	-9.47009
▁întreținere	-9.47009
▁şurubelniţă	-9.47009
🆘	-9.47009
▁secole	-9.47009
▁dincolo	-9.47009
▁inimă	-9.47011
▁maiestuoşi	-9.47011
▁reprezint	-9.4702
▁culturale	-9.47069
operă	-9.47105
▁cartofi	-9.47107
▁Italia	-9.47108
👨‍🎨	-9.47143
▁spaţii	-9.47145
▁Culori	-9.4716
▁mişcări	-9.47168
▁emoţie	-9.47176
▁avocado	-9.47196
dus	-9.47249
▁renumită	-9.47279
▁abilităţile	-9.4741
▁împot	-9.47481
▁faci	-9.47575
▁tropical	-9.47637
ceşti	-9.47671
🚧	-9.47761
▁aștepta	-9.47814
▁delicată	-9.47917
▁maxi	-9.47958
▁💻	-9.47981
rhitectura	-9.48009
▁cultural	-9.4803
indu	-9.48045
▁✈️	-9.48188
▁ochi	-9.48235
🧪	-9.48299
▁lumi	-9.48376
▁revigorant	-9.48474
▁⛪	-9.48526
▁emoții	-9.48755
▁început	-9.48897
▁🎨🖌️	-9.49205
C	-9.49304
rile	-9.49354
riva	-9.49398
feră	-9.49399
▁entuziasm	-9.49416
✨❤️	-9.4943
🏄	-9.49491
▁curcubeu	-9.49508
▁nedescris	-9.49508
▁privelişti	-9.49508
▁Baschet	-9.49509
▁plus	-9.49511
▁prezenţ	-9.49559
roading	-9.49577
▁Sculpturile	-9.49579
▁blând	-9.49597
▁concert	-9.49708
💪✨	-9.49759
▁îngheţată	-9.49788
💊	-9.49805
▁simți	-9.49806
🏼	-9.49854
▁G	-9.4992
▁Picturi	-9.49959
▁drăguţe	-9.50095
▁🏖️	-9.50156
▁relaxantă	-9.50193
▁Te	-9.50243
eți	-9.50245
▁vii	-9.50275
▁punct	-9.50335
▁ritmul	-9.50515
🪑	-9.50554
▁costum	-9.50568
✨😍	-9.50898
▁preparat	-9.5102
🧰	-9.5107
▁👦	-9.51205
▁forma	-9.51874
▁rapidă	-9.51925
▁stele	-9.51996
▁☔	-9.52009
▁schi	-9.52025
⚔️	-9.52046
🎇	-9.5206
🍻	-9.52067
📍	-9.52073
▁captivează	-9.52073
▁poveste	-9.52073
▁profesionist	-9.52073
🎋	-9.52073
🤍	-9.52073
▁După	-9.52073
▁auto	-9.52073
▁provocatoare	-9.52075
▁Mirosul	-9.52094
torită	-9.52108
▁graţioase	-9.52108
🍯	-9.52129
▁antic	-9.52135
▁tinere	-9.52232
🌽	-9.52358
▁🔨	-9.52392
▁liniştea	-9.52404
▁ingrediente	-9.52493
Mama	-9.52581
▁mânca	-9.52659
▁emoţionant	-9.52824
▁🤩	-9.52833
▁mesaje	-9.52885
▁tropicale	-9.52929
▁bogate	-9.53013
🚙	-9.53024
🎧	-9.53034
▁iubitor	-9.53079
🐝	-9.53211
🏘️	-9.53219
🏎️	-9.53221
an	-9.53299
▁🌬️	-9.53511
▁rulot	-9.53654
▁constant	-9.53671
▁👫	-9.53999
stau	-9.54179
▁ating	-9.54231
▁acela	-9.54508
▁tricou	-9.54523
▁adevărată	-9.54539
▁medic	-9.5461
🔑	-9.54667
louă	-9.54695
▁Clădir	-9.54704
▁atmosferă	-9.54704
▁clădiri	-9.54704
▁plaja	-9.54704
▁vacanţă	-9.54704
aj	-9.54704
▁Castelul	-9.54704
▁trecătoare	-9.54706
▁volei	-9.54706
▁tort	-9.54714
▁încântător	-9.54737
▁uimire	-9.54742
▁grele	-9.54896
▁abstracte	-9.54959
orii	-9.54994
🍟	-9.55116
▁ore	-9.55121
▁orez	-9.55127
▁Plante	-9.552
▁prinde	-9.55293
▁spatele	-9.55294
▁jucăuşe	-9.553
ke	-9.55346
ca	-9.5535
▁👧	-9.55412
😌✨	-9.5546
😫	-9.55669
▁libertate	-9.5583
😬	-9.55933
al	-9.55947
🐢	-9.55951
E	-9.55976
▁cred	-9.56074
▁strălucitor	-9.56187
🌉	-9.56206
▁expresie	-9.56401
▁emoţiile	-9.56412
ura	-9.5645
🏄‍♀️	-9.56474
ării	-9.56553
✨💫	-9.56593
▁picioarele	-9.567
🏽	-9.56739
🦄	-9.5734
▁🖼️	-9.57351
🏞	-9.57358
😷	-9.57393
🌐	-9.57398
turi	-9.57403
💣	-9.57407
▁comori	-9.57407
▁merită	-9.57407
👻	-9.57407
📢	-9.57407
📣	-9.57407
🧑‍🍳	-9.57407
▁baie	-9.5741
▁pictură	-9.57414
▁golf	-9.57423
▁obtine	-9.57481
▁nostalgie	-9.57486
▁decapotabila	-9.5752
▁piatră	-9.57565
▁Dac	-9.57604
▁simfonie	-9.57637
▁tradiţionale	-9.57646
▁două	-9.57708
▁🚲	-9.5776
▁excursii	-9.578
▁emoţiilor	-9.57824
▁vesele	-9.57852
▁☁️	-9.57877
ara	-9.58094
▁plantelor	-9.58138
▁arată	-9.58243
▁designul	-9.58288
▁stă	-9.58304
▁🌹	-9.58413
▁ţine	-9.58474
▁⏰	-9.58545
▁ridica	-9.58606
🥩	-9.58652
▁sorbi	-9.58744
▁zâmbete	-9.58747
▁eco	-9.58852
👩‍🎨	-9.58931
▁libertatea	-9.59039
▁pierdut	-9.59093
▁magice	-9.59095
▁bogat	-9.59391
🎨✨	-9.59499
▁succes	-9.59573
▁H	-9.59658
▁combin	-9.59671
🥶	-9.59774
👶	-9.59801
▁clasică	-9.60001
▁fir	-9.60046
🌥️	-9.60088
▁turcoaz	-9.60112
🌬	-9.60134
💘	-9.60137
🍇	-9.60167
▁cizme	-9.60185
▁mănânc	-9.60185
▁primăvară	-9.60185
🔗	-9.60185
▁rollercoaster	-9.60185
▁hanorac	-9.60185
▁Descoperi	-9.60187
▁panda	-9.60194
▁luminos	-9.60201
▁Catedrala	-9.60208
▁lung	-9.60244
▁vederi	-9.60244
▁salvator	-9.60258
▁legături	-9.60293
▁vizitat	-9.60298
▁cheie	-9.60362
▁delicat	-9.60423
▁îngheţate	-9.60431
▁surprind	-9.60497
ța	-9.60649
▁vieții	-9.60664
🦾	-9.60665
🏺	-9.60735
▁model	-9.60768
▁limitele	-9.60788
👩	-9.60856
⛱️	-9.60961
▁🍔	-9.61024
🐻	-9.61026
▁ferestre	-9.61058
▁crocantă	-9.61096
▁\	-9.61096
🌸🌼	-9.61302
T	-9.61315
▁peisajelor	-9.61372
▁îmbrățiș	-9.61402
▁🍜	-9.61553
▁Exist	-9.61569
▁aşa	-9.61683
☃️	-9.61735
▁meci	-9.61781
🏄‍♂️	-9.61842
▁🌼	-9.61852
⛄	-9.61957
⛵	-9.61985
💮	-9.62069
▁La	-9.6227
▁🌻🌞	-9.62299
👢	-9.62389
▁ghemuit	-9.62467
tul	-9.62567
na	-9.6258
🪓	-9.6261
▁ţin	-9.62638
▁Joc	-9.62901
▁trece	-9.62939
🦌	-9.62956
▁măsură	-9.63035
▁Dragoste	-9.63042
▁Lavanda	-9.63042
▁Muzica	-9.63042
▁autostradă	-9.63042
▁eleganţă	-9.63042
▁fierbinţi	-9.63042
▁profesor	-9.63042
🔁	-9.63042
🛶	-9.63042
▁fiecăr	-9.63042
▁drumeții	-9.63042
▁bandă	-9.63042
▁piese	-9.63042
🧑‍🤝‍🧑	-9.63043
⚒️	-9.63045
▁dimineața	-9.63046
▁Trezi	-9.63049
▁opere	-9.63057
▁binecuvântat	-9.63076
▁prăjiţi	-9.63076
▁adăuga	-9.63078
▁clătite	-9.63084
▁🔌	-9.63125
▁croazieră	-9.63129
✨😌	-9.63154
▁evocă	-9.63181
▁sărbători	-9.63218
▁😌	-9.63229
▁piscină	-9.633
▁iau	-9.63313
▁materiale	-9.63366
tori	-9.63372
▁🐬🧠	-9.63474
▁Sunet	-9.63638
▁special	-9.63752
▁gheaţă	-9.63824
▁nuanţe	-9.639
up	-9.63984
🏃	-9.6407
▁relaxa	-9.64091
▁atemporal	-9.64094
▁Ai	-9.64117
▁vizual	-9.64125
▁Vre	-9.64148
oare	-9.64227
▁vieţi	-9.64261
🍨	-9.64318
▁colț	-9.64395
😀	-9.64477
🚌	-9.64527
▁glume	-9.64559
▁perfecta	-9.64582
iecare	-9.64808
▁trafic	-9.64884
bsedat	-9.64916
🕺💃	-9.6502
▁interiorul	-9.6504
▁lucruri	-9.65184
🍞	-9.65235
▁spa	-9.65442
▁imagina	-9.65623
▁Înot	-9.65707
▁peisaj	-9.65807
🌭	-9.65817
▁🐼	-9.65822
❤️😊	-9.65844
▁aromele	-9.65897
🍾	-9.65966
🍄	-9.65981
🏮	-9.65982
📘	-9.65983
▁Australia	-9.65983
▁bambus	-9.65983
▁iubesc	-9.65983
▁Tenis	-9.65983
🔐	-9.65983
▁festin	-9.65983
▁Mâncare	-9.65984
▁instant	-9.65985
▁magia	-9.65985
▁esenţ	-9.65986
▁frate	-9.65991
▁live	-9.65992
▁iarna	-9.65992
▁plimb	-9.65995
▁Încerca	-9.66021
▁pietre	-9.66023
▁problemelor	-9.66151
▁+	-9.66222
▁negru	-9.66222
▁rafinată	-9.66315
🕍	-9.66358
▁copac	-9.66368
▁sătura	-9.66376
▁topită	-9.6641
▁prezent	-9.66434
▁păstr	-9.66568
▁Ele	-9.66586
▁ridică	-9.66649
▁repar	-9.66698
▁ghemui	-9.66868
▁asista	-9.66937
▁St	-9.66943
▁profundă	-9.67013
▁urban	-9.67122
▁profund	-9.67133
▁calmantă	-9.67301
▁Asistente	-9.67321
▁4	-9.67359
🧂	-9.67362
🥣	-9.67389
▁poft	-9.67393
🗓️	-9.67515
▁lovit	-9.67547
🐧	-9.6755
▁unor	-9.67567
▁istorică	-9.67619
▁probleme	-9.68103
▁vârf	-9.6815
▁strânge	-9.68165
▁st	-9.68368
▁Ne	-9.68534
✨🌈	-9.68542
👘	-9.68616
🍤	-9.68629
⛩️	-9.68704
▁aş	-9.68716
🎼	-9.68806
▁electrice	-9.68842
➰	-9.68853
▁colţ	-9.68882
💸	-9.68991
🏹	-9.68999
🥪	-9.69
▁blânzi	-9.69013
▁cerebral	-9.69013
▁legume	-9.69013
▁mâine	-9.69013
▁priveliște	-9.69013
▁parcurs	-9.69014
▁distracție	-9.69014
▁uneori	-9.69014
▁zbura	-9.69014
🕴️	-9.69015
▁camera	-9.69016
▁ramen	-9.69016
🔥💯	-9.69042
▁cad	-9.69048
▁fascinat	-9.69057
▁strop	-9.69066
▁liniştitor	-9.69077
▁Surfing	-9.69087
▁Dansând	-9.69101
▁ajutor	-9.69149
▁tara	-9.69185
est	-9.69188
▁întruchipare	-9.69249
▁ascunsă	-9.69323
🧚‍♀️	-9.69392
▁contemporană	-9.69421
▁alergare	-9.69449
▁rezolvare	-9.69505
▁Planta	-9.69528
▁🌈	-9.6961
▁pături	-9.69705
▁costume	-9.69811
urilor	-9.69848
ge	-9.69898
▁florilor	-9.70062
▁parfumul	-9.70072
👒	-9.7013
💃🏼	-9.70189
▁📏	-9.70235
▁termin	-9.70239
▁salva	-9.70246
nt	-9.70251
▁vede	-9.70319
ol	-9.70478
▁obiectiv	-9.70551
▁culturii	-9.70623
🏭	-9.70625
🤸‍♂️	-9.70645
▁privire	-9.70673
4	-9.70695
▁sălbăticie	-9.70948
j	-9.70957
▁carier	-9.70981
nă	-9.71038
▁transform	-9.71063
▁par	-9.71155
▁lumină	-9.7118
▁spectacol	-9.71246
▁sculpturi	-9.71459
▁sigur	-9.71574
▁aspirator	-9.71596
▁secrete	-9.71631
▁filtru	-9.71822
▁Explora	-9.71874
ant	-9.7193
📦	-9.72068
▁monstru	-9.72133
💺	-9.72138
▁SUV	-9.72138
▁cookie	-9.72138
▁ocazie	-9.72138
▁puţin	-9.72138
▁vascular	-9.72138
🤫	-9.72138
📆	-9.72138
▁plictisitoare	-9.72139
▁pieţe	-9.72139
▁modalitat	-9.7214
▁arhitectură	-9.72141
▁Dansul	-9.72187
▁eman	-9.72192
🏵️	-9.72197
▁pante	-9.72204
▁viu	-9.72229
▁Fotbalul	-9.72263
▁plimbări	-9.72275
▁încerc	-9.72277
▁gri	-9.72365
▁abi	-9.72419
▁alţii	-9.7244
▁Pas	-9.7249
▁Pregat	-9.72589
▁însorite	-9.72709
ive	-9.72709
em	-9.72789
itate	-9.72896
M	-9.72907
▁vindecare	-9.72919
▁bază	-9.72973
▁liniștită	-9.73068
💃🎉	-9.7323
on	-9.73233
ba	-9.73255
▁modela	-9.73261
▁relaxez	-9.73298
▁iconic	-9.73425
▁gol	-9.73438
🎸	-9.73445
▁crocant	-9.73518
▁Scufunda	-9.73609
▁creez	-9.73637
▁😴	-9.73719
I	-9.73754
vi	-9.7377
🌩️	-9.73775
ș	-9.73823
🌫️	-9.73853
▁📷	-9.7396
💪🌟	-9.74088
ţa	-9.74098
torii	-9.74184
▁🇧🇷	-9.74441
💫✨	-9.74472
▁imaginați	-9.74554
⛺	-9.74658
▁Design	-9.74717
▁spate	-9.74823
▁aceasta	-9.74837
▁tăi	-9.75166
▁Văzând	-9.75259
▁facem	-9.75308
🪞	-9.75328
🧁	-9.7535
diferent	-9.75364
▁beton	-9.75364
▁tehnologia	-9.75364
▁veterinar	-9.75364
▁vremuri	-9.75364
👤	-9.75364
🔀	-9.75364
🥚	-9.75364
🦸‍♀️	-9.75364
▁ciocolata	-9.75364
▁Uită	-9.75364
♨️	-9.75365
▁copt	-9.7537
▁martor	-9.75372
▁gustoase	-9.75372
▁Off	-9.75374
▁Panda	-9.75375
▁Ploaia	-9.75437
▁mândrie	-9.75439
▁anului	-9.75456
▁marine	-9.75527
▁complexe	-9.75543
▁(	-9.7558
▁cuceri	-9.75588
▁spectacole	-9.75653
ala	-9.75688
▁relaxat	-9.75717
totdeauna	-9.75836
▁cuie	-9.75909
▁veselă	-9.76041
▁câmpuri	-9.76055
▁creative	-9.7606
▁iubit	-9.76162
▁rătăc	-9.76205
🌸🌺	-9.76229
▁persoan	-9.76296
ver	-9.76499
▁put	-9.76607
▁pământ	-9.76619
🙌🏻	-9.76779
▁cuvintele	-9.76984
🚦	-9.77137
🌳🏞️	-9.77322
▁🌴	-9.7738
▁experienţe	-9.77454
❄️🌬️	-9.77564
▁nor	-9.77589
▁copleşit	-9.77615
▁mulţumit	-9.77652
▁împinge	-9.77871
▁limite	-9.77977
😍✨	-9.78092
▁🌲	-9.78201
🪶	-9.78259
as	-9.78266
▁to	-9.7836
▁ştiu	-9.78521
▁Re	-9.78525
🕹️	-9.78528
rumuseţea	-9.78582
🎂	-9.78612
▁surf	-9.78658
🥅	-9.7867
▁inginer	-9.78674
🗽	-9.78685
🔫	-9.7869
▁eleganţa	-9.78697
▁robust	-9.78697
📊	-9.78697
▁fermecător	-9.78697
🔔	-9.78697
🔙	-9.78697
▁giganţi	-9.78698
▁Fapt	-9.78698
▁îndrăznețe	-9.78699
▁cărţi	-9.787
▁scoate	-9.78706
▁înfloresc	-9.78719
▁vezi	-9.78724
▁ajun	-9.78752
▁Ori	-9.78768
▁îmbrăţişări	-9.78775
❤️✨	-9.78792
▁Gătit	-9.78833
▁du	-9.78844
▁locale	-9.78901
niște	-9.78967
▁😎	-9.79039
▁timpului	-9.79043
▁ridicat	-9.79196
▁burger	-9.79309
▁scenă	-9.79325
▁grădinărit	-9.7934
▁aprinde	-9.79399
▁imaginaţiei	-9.79474
▁supremă	-9.79481
ibă	-9.79508
▁iubitorii	-9.79585
▁nopţii	-9.79753
▁amintind	-9.79765
💃✨	-9.79948
▁întregi	-9.79968
▁ciudate	-9.80042
ve	-9.80082
🎾	-9.80197
alele	-9.80205
▁futurist	-9.80231
▁aparat	-9.80284
▁Po	-9.80373
▁Nori	-9.80391
pa	-9.80474
🏊	-9.80686
🚜	-9.80695
🦅	-9.80698
B	-9.80731
▁combinaţi	-9.80964
▁👵	-9.80983
▁eşti	-9.81114
S	-9.81158
▁cunoscu	-9.81212
▁aspectul	-9.81474
▁🍳	-9.8154
▁sunete	-9.81566
▁accident	-9.81586
▁zilei	-9.81759
iaţa	-9.81808
🇯🇵	-9.8183
▁pielea	-9.81946
▁muzeu	-9.81997
▁🍂	-9.81998
🌪	-9.82097
🕉️	-9.82138
🍢	-9.82141
🛒	-9.82142
🏋️	-9.82145
🤓	-9.82146
▁Koala	-9.82146
▁epocă	-9.82146
▁rulouri	-9.82146
▁tinuta	-9.82146
🪨	-9.82146
▁dulci	-9.82146
▁delicii	-9.82146
▁venerație	-9.82146
▁vibrații	-9.82146
▁ţara	-9.82146
👷‍♂️	-9.82148
▁cremos	-9.82148
▁sirop	-9.82149
Natura	-9.82153
▁prost	-9.82178
▁activităţi	-9.82183
▁domeni	-9.82187
▁trezit	-9.82201
▁experimenta	-9.8222
▁somn	-9.8223
▁mişcare	-9.82262
▁Fratel	-9.82275
▁dificile	-9.82278
lu	-9.82278
▁astea	-9.82305
▁Pet	-9.82325
▁capul	-9.82339
▁implică	-9.82386
▁levănţică	-9.82423
👦	-9.82449
▁împlinită	-9.82642
▁drăguţ	-9.82648
▁alunec	-9.82813
ze	-9.82846
că	-9.8287
▁impresionantă	-9.82915
▁iconice	-9.83043
🌲🌳	-9.83086
▁curtea	-9.83198
▁atemporală	-9.83398
👯‍♂️	-9.83399
▁tropicală	-9.83624
▁auzi	-9.83682
▁🖌️🎨	-9.83697
▁liniștit	-9.83803
bi	-9.83828
▁🚘	-9.83966
🐆	-9.83971
👴	-9.84057
▁😔	-9.84064
🏫	-9.84079
▁tip	-9.84087
▁🛍️	-9.84125
🏍️	-9.84158
🩳	-9.84218
▁înţelepciune	-9.84246
⏱️	-9.84249
▁găs	-9.84311
.\	-9.84471
▁an	-9.84494
▁rămân	-9.84508
▁larg	-9.84521
▁vi	-9.8453
▁cântecul	-9.84613
aş	-9.84772
▁idei	-9.84799
ş	-9.84799
ist	-9.84884
🧘‍♂️	-9.84929
✨💪	-9.8505
▁moderni	-9.85051
🌿💚	-9.85076
▁🐘🧠	-9.851
▁umplu	-9.85179
▁exerciţiu	-9.85214
🛠	-9.85376
▁aripi	-9.85447
🐋	-9.85716
▁Obosit	-9.85717
▁pitorești	-9.85717
▁praf	-9.85717
▁satisfăcător	-9.85717
▁uşoară	-9.85717
▁viteză	-9.85717
▁înăuntru	-9.85717
🌁	-9.85717
▁gradina	-9.85717
⬆️	-9.85717
▁samba	-9.85717
▁cumpărături	-9.85717
▁pânză	-9.85718
▁carne	-9.85718
🛤️	-9.8572
🧗‍♂️	-9.85721
▁numele	-9.8573
▁obiecte	-9.85738
▁posibilităţi	-9.85741
▁recunoștință	-9.85741
ăştia	-9.85744
▁venit	-9.85786
▁lacrimi	-9.85838
▁lovind	-9.85872
▁toți	-9.85877
▁șurubelniță	-9.8589
▁prosperă	-9.85896
▁pierde	-9.85965
▁descoperire	-9.86093
▁jucăuş	-9.86354
be	-9.86384
▁🇯🇵	-9.86416
▁vizitatorii	-9.86443
👩‍💻	-9.86453
👔	-9.86501
▁micul	-9.86556
▁aspect	-9.8659
💨🌬️	-9.86664
R	-9.86669
▁casei	-9.86725
▁mal	-9.86744
▁scufunda	-9.86774
▁restaurant	-9.86897
▁personal	-9.86967
▁🦁	-9.87059
ru	-9.87089
▁🌇	-9.87105
🥐	-9.87116
▁altul	-9.8729
▁străzi	-9.87372
▁🍲	-9.8746
▁bu	-9.87487
🎞️	-9.87503
▁prim	-9.87737
▁😃	-9.87754
▁Aventuri	-9.87758
▁👩‍🍳	-9.87795
▁arata	-9.87864
▁dac	-9.87887
😰	-9.87904
🩰	-9.87915
▁albe	-9.88125
▁nopți	-9.8817
▁nopţi	-9.88258
bţine	-9.88324
▁arhitecturale	-9.88375
💨💨	-9.88395
▁filme	-9.8849
▁făcute	-9.88533
▁prăjitor	-9.8854
▁accidentat	-9.8858
▁Duminic	-9.88606
▁pene	-9.88613
▁stres	-9.88668
za	-9.88726
▁pasionat	-9.88763
▁🙏❤️	-9.888
ine	-9.88945
▁învârt	-9.89022
▁întruchip	-9.89132
▁oferi	-9.89144
▁răsărit	-9.89193
▁Ma	-9.89235
▁Muze	-9.89299
▁lăsând	-9.8934
🪵	-9.89342
🌏	-9.8942
friendly	-9.89421
▁Profes	-9.89421
▁farfurie	-9.89421
▁fericirii	-9.89421
▁mișcare	-9.89421
▁răcoroasă	-9.89421
▁strategie	-9.89421
▁fitness	-9.89421
▁mulţumire	-9.89421
👩‍❤️‍👨	-9.89421
▁garderoba	-9.89421
▁Arom	-9.89421
🚣‍♀️	-9.89421
🖋️	-9.89424
▁respiraţia	-9.89425
▁înalţi	-9.89427
▁masin	-9.8943
▁îmbunătăţi	-9.89435
▁💕	-9.89443
▁primitoare	-9.89445
▁linii	-9.89465
▁birouri	-9.89468
▁șuruburi	-9.89471
▁minți	-9.89474
▁scufundări	-9.89491
▁sfaturi	-9.89503
▁h	-9.89578
▁nesfârșite	-9.89626
▁simţurile	-9.89695
▁ritm	-9.89704
▁rafinate	-9.89753
▁digitală	-9.89762
▁activitate	-9.89782
▁all	-9.89783
▁produse	-9.89819
🩺	-9.89824
▁plantele	-9.89867
▁frumuseţii	-9.89886
▁aurii	-9.89909
▁👕	-9.89983
ezi	-9.90147
▁sufletului	-9.90164
▁🌄	-9.90202
▁👴👵	-9.90327
▁curse	-9.9042
iua	-9.90444
▁obiective	-9.90482
▁cuptorul	-9.90524
▁copleşită	-9.90599
▁completă	-9.90676
▁vizuală	-9.9077
▁💨	-9.90947
💪❤️	-9.90969
▁naviga	-9.91148
▁arte	-9.91177
▁🚙	-9.91209
🍂🍁	-9.91249
▁Nou	-9.91251
▁ritmuri	-9.91293
▁jucăuș	-9.91327
🔥💪	-9.91355
▁relaxant	-9.91364
▁Vânt	-9.91434
O	-9.91559
oase	-9.91585
▁agilitate	-9.91641
🚿	-9.91756
👨‍👧‍👦	-9.91767
▁minunată	-9.91809
▁fiu	-9.91828
▁Cultura	-9.91932
▁stilul	-9.91979
încălzeşte	-9.91982
▁bunic	-9.92246
uza	-9.92361
▁păsări	-9.92364
ata	-9.92367
▁el	-9.92804
▁desert	-9.92818
ur	-9.92908
um	-9.92925
▁apa	-9.92974
▁🏋️‍♀️	-9.93036
▁descoperit	-9.93075
🙈	-9.93123
🧚	-9.93261
ăpada	-9.93265
🟢	-9.93265
▁Furtun	-9.93267
▁cireșe	-9.93267
▁eleganţei	-9.93267
▁espresso	-9.93267
▁invită	-9.93267
▁neoprit	-9.93267
▁perioad	-9.93267
▁sleek	-9.93267
▁speranţă	-9.93267
🍍	-9.93267
▁piesă	-9.93267
🆓	-9.93267
🍭	-9.93267
💍	-9.93267
⚓	-9.93267
▁copii	-9.93267
▁arhitecturii	-9.93267
▁salsa	-9.93267
▁muscatura	-9.93268
🧗‍♀️	-9.93268
▁uimească	-9.93271
▁roller	-9.93274
▁coapte	-9.93276
▁Pregăteşte	-9.93277
▁Încântat	-9.93282
▁Iubitori	-9.93285
▁scaun	-9.93295
▁Fericire	-9.93299
▁tacos	-9.93303
▁tratament	-9.93312
▁următoare	-9.93334
▁acrobatice	-9.93349
▁împodobit	-9.93351
▁înghețată	-9.93412
▁cariere	-9.93425
▁gam	-9.93426
▁graniţele	-9.93453
▁uită	-9.93497
▁scene	-9.93532
▁neaşteptate	-9.93612
▁exterior	-9.9378
▁experiențe	-9.93848
▁unchi	-9.93868
▁artistică	-9.93873
🎨🌈	-9.93906
▁promov	-9.93933
▁👟	-9.93956
🐚	-9.93958
🏂	-9.93959
▁transformat	-9.93985
▁medicale	-9.9399
▁păsările	-9.93998
🌈🎨	-9.94104
▁Du	-9.94141
▁creativă	-9.94207
ață	-9.94301
▁😁	-9.94311
▁explorarea	-9.9436
▁cireş	-9.94445
▁Cel	-9.94484
ling	-9.94598
▁antică	-9.94854
🤗❤️	-9.94855
🧒	-9.94874
▁meciul	-9.94889
🥟	-9.9524
▁intensă	-9.95263
▁interesant	-9.95323
▁picant	-9.95331
▁antrenant	-9.95341
▁oraşul	-9.95395
🤞	-9.95451
ştii	-9.95605
👸	-9.95621
▁dansul	-9.95779
have	-9.95787
🚴‍♀️	-9.95791
👩‍👧‍👦	-9.95793
🪛	-9.95806
♂️	-9.9587
▁salut	-9.95947
▁Lu	-9.96034
▁fericite	-9.9611
▁🏕️	-9.96126
▁reconfortant	-9.9616
ască	-9.96214
▁rapide	-9.96246
▁important	-9.96426
ro	-9.96437
▁galben	-9.96452
▁trebui	-9.96453
▁festival	-9.96546
🕺🏻	-9.96555
▁echilibru	-9.96558
▁No	-9.96626
▁🏎️	-9.96721
▁râs	-9.96736
▁oraşe	-9.96778
▁pacea	-9.96789
▁pun	-9.96831
🌊🏖️	-9.96937
▁Pictur	-9.96945
▁📖	-9.96981
🕵️‍♂️	-9.97004
🤿	-9.97017
▁orhidee	-9.97079
✨🎉	-9.97179
🎉🎊	-9.97221
🩹	-9.97227
🍺	-9.97243
▁griji	-9.97243
🎄	-9.97252
🖐️	-9.97258
🧗	-9.9726
😻	-9.97266
✒️	-9.97267
🧵	-9.97267
▁Câin	-9.97267
▁cafenea	-9.97267
▁echitatie	-9.97267
▁graffiti	-9.97267
▁neobosit	-9.97267
changer	-9.97267
▁frigider	-9.97267
🌑	-9.97267
🐛	-9.97267
🧽	-9.97267
▁târziu	-9.97267
▁prietenoşi	-9.97268
▁balet	-9.97268
▁îndoială	-9.97269
▁ploioase	-9.97269
amiaza	-9.97275
oaie	-9.97281
▁Graffiti	-9.973
▁🌆	-9.97316
▁adăpă	-9.97358
▁🎢	-9.97408
▁fata	-9.97424
▁scurt	-9.9746
▁&	-9.97477
▁satisfacţii	-9.97489
▁ține	-9.9753
▁puterii	-9.97554
🥑	-9.97623
▁găsirea	-9.97649
▁feluri	-9.97654
rie	-9.97661
▁provocare	-9.97715
▁scăzută	-9.97763
▁Zile	-9.97787
✨🙌	-9.97812
▁junglei	-9.97819
▁valurilor	-9.97824
▁palmieri	-9.97946
▁👴	-9.97969
▁magnifică	-9.97996
▁Petrecând	-9.9812
▁fara	-9.98141
▁atat	-9.98206
▁Frunze	-9.98352
▁reflectă	-9.98397
▁alunecare	-9.98398
▁creștere	-9.98415
▁aborda	-9.98418
▁🏖️🌊	-9.98507
👩‍💼	-9.98536
▁exprima	-9.98541
▁zbor	-9.98594
▁danseaz	-9.98604
▁alegere	-9.98621
▁obsedat	-9.98745
▁ascult	-9.98791
▁po	-9.98988
💁	-9.99149
▁înţelepciunea	-9.99195
▁💼	-9.99223
▁sine	-9.99292
▁explorezi	-9.99417
▁🍦	-9.99429
😞	-9.99497
🌸✨	-9.99576
▁🦋	-9.99607
țe	-9.99689
🚐	-9.997
▁apusuri	-9.99839
▁norii	-9.99857
🚚	-9.99946
🧑	-9.99949
▁conduce	-10.0015
▁🏙️🎨	-10.0016
▁comunica	-10.0028
▁iubirea	-10.0056
▁irezistibil	-10.0057
▁râd	-10.0057
👩‍	-10.0059
▁tr	-10.0063
ţ	-10.0065
▁călătorii	-10.0085
▁ciuda	-10.009
▁imagine	-10.0103
▁👨‍🍳	-10.0106
▁🔩	-10.011
▁mediu	-10.013
🌦️	-10.0133
🧑‍🎨	-10.014
▁Rămâ	-10.014
🦸‍♂️	-10.014
🗾	-10.014
▁cumpăr	-10.0141
🛁	-10.0142
💋	-10.0142
😜	-10.0143
▁reuș	-10.0143
🔦	-10.0143
🤳	-10.0143
🧦	-10.0143
🪐	-10.0143
▁canapea	-10.0143
▁casual	-10.0143
▁corali	-10.0143
▁dumneavoastră	-10.0143
▁leneș	-10.0143
▁prânz	-10.0143
▁puzzle	-10.0143
▁smoothie	-10.0143
▁zâmbesc	-10.0143
😳	-10.0143
🧸	-10.0143
▁Mătuş	-10.0143
▁repede	-10.0143
▁negre	-10.0143
▁Rock	-10.0143
▁picături	-10.0144
▁iubirii	-10.0144
▁respect	-10.0144
🕳️	-10.0144
▁nenumărate	-10.0144
▁TV	-10.0144
▁bătăi	-10.0144
▁rostogolesc	-10.0144
▁pictura	-10.0145
▁talie	-10.0145
▁provocator	-10.0146
▁găuri	-10.0146
▁marcat	-10.0146
▁lavandă	-10.0147
▁apropie	-10.0148
▁surfing	-10.0148
▁portabil	-10.0148
▁deveni	-10.015
▁ușurință	-10.015
▁pacienţilor	-10.0153
▁Upgrade	-10.0153
▁vibratii	-10.0154
!!️	-10.0155
▁anticipare	-10.0158
▁muşcătură	-10.0159
veţi	-10.0163
▁decadent	-10.0164
👍🏼	-10.0165
iața	-10.0165
▁leneşă	-10.0165
▁rochiţ	-10.0169
❤️😍	-10.017
▁aprecia	-10.0173
▁cabană	-10.0176
▁sezonul	-10.018
▁catedrală	-10.0183
▁razele	-10.0186
▁simboliz	-10.0188
▁stresul	-10.0189
▁umane	-10.0192
▁prospera	-10.0194
▁act	-10.0196
lui	-10.0198
▁masa	-10.02
▁prăjituri	-10.0205
▁🔧🔩	-10.0219
▁grijile	-10.0221
🌿✨	-10.0222
▁mării	-10.0231
▁👀	-10.0243
▁adună	-10.0246
▁👨	-10.0252
▁activ	-10.0257
▁impresionante	-10.0268
▁drăguţă	-10.027
▁scufund	-10.0271
▁Pe	-10.0275
▁mulţumită	-10.0277
▁amestecul	-10.0279
▁întâlni	-10.0294
▁Fior	-10.03
▁dansuri	-10.0304
▁cere	-10.0333
💫😍	-10.0336
🔥✨	-10.0345
şte	-10.0353
▁ave	-10.0355
▁cade	-10.036
▁păstra	-10.037
🎨🖌️	-10.0371
elor	-10.0376
▁epic	-10.0385
▁creativ	-10.039
▁colorat	-10.0392
▁l	-10.0398
oarec	-10.0404
▁satur	-10.0407
▁varietate	-10.0408
🎶💃	-10.0409
▁pensule	-10.0413
▁trec	-10.0413
▁greş	-10.0416
✨✨	-10.0417
🏖	-10.0424
🛫	-10.0425
🏬	-10.0426
P	-10.0435
▁visul	-10.0443
🔥😍	-10.0448
▁plăcut	-10.0467
▁mondial	-10.0469
upradimensionate	-10.0474
▁singură	-10.0483
▁albă	-10.0485
▁🥳	-10.0486
▁sentimente	-10.0503
▁sarcini	-10.0504
▁abilităţi	-10.0506
‍♂️	-10.0508
▁ocupat	-10.0516
▁practic	-10.0516
▁rutin	-10.0533
▁case	-10.0542
dă	-10.0558
ed	-10.0559
▁Cactu	-10.0564
▁progresul	-10.0565
🐳	-10.0567
🥺	-10.0568
▁vrea	-10.057
⚫	-10.0575
🥒	-10.0576
▁Chi	-10.0577
🍖	-10.0578
🔶	-10.0578
▁ATV	-10.0578
▁Motociclet	-10.0578
▁albastre	-10.0578
▁bijuteri	-10.0578
▁devreme	-10.0578
▁imediat	-10.0578
▁ploaia	-10.0578
▁revarsă	-10.0578
▁structuri	-10.0578
▁treaba	-10.0578
▁tristeţe	-10.0578
🎹	-10.0578
💀	-10.0578
🙋‍♀️	-10.0578
▁rezistenţă	-10.0578
▁declaraţie	-10.0578
👨‍👩‍👧	-10.0578
▁roşie	-10.0578
▁Ieri	-10.0578
▁zboară	-10.0578
▁pepene	-10.0578
▁izbitoare	-10.0579
▁roşu	-10.0579
▁Căldur	-10.0579
▁gustoasă	-10.0579
▁pereți	-10.058
▁tradiționale	-10.058
▁căutați	-10.058
▁sosit	-10.0582
▁îndemânare	-10.0588
▁👨‍👩‍👧‍👦	-10.0588
▁sarcină	-10.0588
▁fotografii	-10.0588
\	-10.0588
▁empatie	-10.0589
▁Suroril	-10.0589
▁iernii	-10.0591
▁natural	-10.0599
▁centrul	-10.0599
▁străzilor	-10.0599
▁🐶	-10.0599
▁întoarce	-10.0606
▁texturi	-10.0607
▁stradale	-10.0612
▁filmului	-10.0617
▁victorie	-10.0622
▁farmecului	-10.0625
▁subestima	-10.0631
▁artistice	-10.0633
▁🛴	-10.0641
▁Face	-10.0642
▁armonie	-10.065
▁🍝	-10.0651
▁realizat	-10.0655
care	-10.0661
🌊🌴	-10.0664
▁evenimente	-10.0667
▁palate	-10.0669
▁vaste	-10.0671
▁expresii	-10.0674
▁fapt	-10.0695
▁Veder	-10.0712
▁sar	-10.0713
▁suprem	-10.0717
▁iubită	-10.072
şii	-10.0755
▁☀️🏖️	-10.0762
▁Pot	-10.0766
▁🚐	-10.079
🖌️🎨	-10.0809
▁calea	-10.0814
▁cale	-10.0825
▁aparatul	-10.0825
▁plut	-10.0833
▁adorabili	-10.0834
😓	-10.0837
▁👶	-10.0837
▁paşnic	-10.0844
▁însorit	-10.0847
▁asamblare	-10.085
▁medical	-10.0859
🌟✨	-10.0861
▁abilitate	-10.0865
🚘	-10.0878
▁supă	-10.0878
🐿️	-10.0883
▁Veri	-10.0884
cerească	-10.0885
🚲	-10.0887
🐼	-10.0888
ent	-10.0899
▁curs	-10.0914
▁🎨🌌	-10.0943
▁întinde	-10.0952
eni	-10.0953
▁medii	-10.0956
▁pi	-10.0965
spiratorul	-10.0969
oasă	-10.0971
▁sezon	-10.0974
gh	-10.0977
▁captureaz	-10.0982
oară	-10.0987
▁finală	-10.1002
iti	-10.1004
▁🎨🌈	-10.1005
▁patrimoniu	-10.1019
🌞✨	-10.102
▁plec	-10.1022
▁🐬🌊	-10.1022
🍌	-10.1022
roazieră	-10.1031
rt	-10.1031
⚕️	-10.1032
🚨	-10.1033
🚰	-10.1033
▁Păstrați	-10.1033
▁condiţii	-10.1033
▁conexiune	-10.1033
▁dimensiuni	-10.1033
▁fereastră	-10.1033
▁frumoasa	-10.1033
▁hârtie	-10.1033
▁manual	-10.1033
▁pufoşi	-10.1033
▁refugiu	-10.1033
▁încadrează	-10.1033
😉	-10.1033
🥖	-10.1033
▁supereroi	-10.1033
▁interioare	-10.1033
👷‍♀️	-10.1033
⚠️	-10.1033
▁India	-10.1033
▁exact	-10.1033
▁Yo	-10.1033
▁trening	-10.1033
▁încântare	-10.1034
▁cristaline	-10.1034
▁gândesc	-10.1036
▁capete	-10.1036
▁pereţi	-10.1038
▁cântând	-10.1038
Mă	-10.1039
▁ridic	-10.1041
▁radiază	-10.1045
▁lemnului	-10.1046
▁nuanțe	-10.1046
▁precise	-10.1046
▁lucreaz	-10.1048
▁lucrez	-10.105
▁cascadă	-10.105
▁alătur	-10.105
👨‍🔧	-10.1053
👨‍💼	-10.106
▁vopsea	-10.1063
▁🏯	-10.1066
▁pește	-10.1067
▁Călăr	-10.1068
▁absorbi	-10.1069
▁înflorite	-10.1075
▁florală	-10.1079
▁goluri	-10.1088
ţă	-10.1089
▁voi	-10.1091
ng	-10.1097
▁vie	-10.1098
▁🛣️	-10.1101
🌬️💨	-10.1103
king	-10.1106
🎭🎨	-10.111
▁minţii	-10.1119
▁🍟	-10.1121
👩‍⚕️	-10.1123
▁spaţiul	-10.1126
▁istoriei	-10.1129
🌺🌸	-10.1131
✨🌸	-10.1133
💭✨	-10.1148
▁😄	-10.1154
▁vizuale	-10.1164
▁🎥	-10.1171
▁calmante	-10.1197
▁lu	-10.12
D	-10.12
▁terenuri	-10.1201
▁adus	-10.1202
▁rulotă	-10.1219
▁🐆	-10.1222
💭❤️	-10.1225
▁inspira	-10.1229
▁coaster	-10.1237
da	-10.1238
👵	-10.124
🥛	-10.1248
🥞	-10.1257
▁puloverul	-10.1259
▁impresionant	-10.1268
▁stomac	-10.1272
▁conducere	-10.1286
▁calmă	-10.1291
el	-10.1294
▁seri	-10.1299
🎿	-10.1299
▁📺	-10.1303
▁🚶‍♀️	-10.1306
▁social	-10.1316
🧖‍♀️	-10.1317
▁reuşeşt	-10.1317
▁agitat	-10.1322
🌍✨	-10.1327
▁lovituri	-10.1336
▁Strig	-10.1342
▁pro	-10.1359
🐶	-10.1362
instrument	-10.1366
▁🏍️💨	-10.1375
▁copilărie	-10.1386
💪💯	-10.1392
▁motiv	-10.1408
▁orașe	-10.1413
▁blenderul	-10.1422
▁gotic	-10.1426
ch	-10.143
🌲🏞️	-10.1432
▁test	-10.1438
ător	-10.1443
▁admir	-10.1451
▁⛈️	-10.1477
▁vene	-10.1484
▁plina	-10.1491
▁schimba	-10.1497
ow	-10.1498
🎌	-10.1504
▁posibil	-10.1506
🍸	-10.1506
▁🏃‍♂️	-10.1507
➖	-10.1507
▁mini	-10.1507
▁dunk	-10.1507
▁frig	-10.1508
⌚	-10.1509
🤏	-10.1509
▁Jeep	-10.1509
▁câini	-10.1509
▁domiciliu	-10.1509
▁foarfece	-10.1509
▁mamifer	-10.1509
▁muzee	-10.1509
▁scântei	-10.1509
▁secunde	-10.1509
▁unealtă	-10.1509
🥄	-10.1509
🧈	-10.1509
🍮	-10.1509
📉	-10.1509
😵	-10.1509
▁dungi	-10.1509
▁pierz	-10.1509
▁doctor	-10.1509
▁idee	-10.1509
▁unelte	-10.1509
▁veche	-10.151
▁bucatar	-10.151
▁muntelui	-10.1511
▁plouă	-10.1511
▁prietenoasă	-10.1511
▁capabil	-10.1511
▁cuiva	-10.1513
▁Îmbrăţişaţi	-10.1513
▁îndrăzneţe	-10.1515
▁elefanţi	-10.1517
▁om	-10.1521
▁rai	-10.1523
▁realizez	-10.1523
▁Într	-10.1524
▁🚗💨	-10.1525
▁aminteşte	-10.1526
▁publicul	-10.1527
▁ulei	-10.1528
▁leneşe	-10.1528
▁vera	-10.1534
▁îmbrăţişez	-10.1539
mul	-10.1559
▁stropi	-10.1562
▁recife	-10.1563
▁regii	-10.1563
▁sunet	-10.1567
▁felii	-10.1568
▁bucătării	-10.1574
▁Pisicil	-10.1579
▁Alergare	-10.1581
▁sălbatică	-10.1585
🙏🏻	-10.1587
▁ton	-10.1591
▁îmbrăţiş	-10.1594
▁cireşe	-10.1611
▁viitorul	-10.1613
▁🛵	-10.1626
▁Rul	-10.1627
▁jocului	-10.163
fi	-10.1634
▁parteneri	-10.1635
▁Designeri	-10.1639
🦚	-10.1644
▁🍞🔥	-10.1649
▁🍞	-10.1654
▁🍪	-10.1655
▁picturile	-10.1656
🌿🌸	-10.1658
💡✨	-10.166
pune	-10.1662
▁chic	-10.1683
🌞🌻	-10.1685
▁☀️🌞	-10.1689
▁iubitori	-10.169
▁prezentare	-10.1697
▁n	-10.1706
▁🧹	-10.1711
▁revigorantă	-10.1714
▁creşte	-10.1727
▁sp	-10.1743
▁fani	-10.1744
▁parfum	-10.1749
▁complicat	-10.1753
👨‍⚕️	-10.176
▁Plaje	-10.176
▁bucur	-10.177
▁🏆	-10.1785
🔥❤️	-10.1787
▁Pute	-10.1791
▁🕌	-10.1809
▁grozav	-10.1816
▁scop	-10.1816
▁pozitiv	-10.1817
▁inimi	-10.1822
▁vesel	-10.1822
▁total	-10.1833
▁sănătate	-10.1844
▁minte	-10.1855
🥧	-10.1856
▁palpitantă	-10.1861
ns	-10.1864
▁persoane	-10.1865
▁exprim	-10.1867
▁w	-10.1885
▁imaginaţie	-10.1893
▁leagăn	-10.191
▁capturare	-10.1915
▁g	-10.192
▁strâns	-10.1925
▁tărâmul	-10.194
▁stăpâni	-10.1942
▁miros	-10.1953
▁răsfăța	-10.196
▁amintirile	-10.1975
▁următor	-10.198
▁savan	-10.1998
▁Nici	-10.1999
🖼	-10.2004
▁const	-10.2005
▁călăr	-10.2006
👯	-10.2008
😺	-10.2008
🧤	-10.2009
▁metal	-10.2009
🍶	-10.2009
🐕	-10.2009
🐜	-10.2009
🙃	-10.2009
🚂	-10.2009
▁Bucătări	-10.2009
▁Burghiu	-10.2009
▁Simțiți	-10.2009
▁adidași	-10.2009
▁control	-10.2009
▁distanţă	-10.2009
▁imposibil	-10.2009
▁memorie	-10.2009
▁muzicii	-10.2009
▁sanctuar	-10.2009
▁îmbrăcăminte	-10.2009
🆚	-10.2009
🧢	-10.2009
▁Masin	-10.2009
▁sclipitoare	-10.2009
☑️	-10.2009
🪜	-10.2009
▁Tigr	-10.2009
🦆	-10.2009
🤷‍♀️	-10.2009
▁scule	-10.2009
▁vizitez	-10.2009
▁zero	-10.2009
▁siguranță	-10.2009
🗂️	-10.2009
high	-10.2009
▁oricăr	-10.2009
💁‍♂️	-10.2009
▁jucând	-10.2009
▁muncit	-10.201
▁voce	-10.201
▁Pământ	-10.201
▁spus	-10.201
▁camping	-10.201
▁roşii	-10.201
▁sofisticare	-10.201
▁reparații	-10.201
▁pitoresc	-10.201
▁veşti	-10.2011
▁liniştitoare	-10.2011
▁teamă	-10.2013
▁lucrări	-10.2014
❤️🥰	-10.2015
▁proprietăţi	-10.2016
▁cremoasă	-10.2017
▁atmosfera	-10.2021
▁savura	-10.2021
▁diferenţa	-10.2022
▁expoziţi	-10.2022
orul	-10.2025
▁pisici	-10.2025
▁Urc	-10.2025
▁interpretări	-10.2026
▁sală	-10.2028
▁roţi	-10.203
▁sezonului	-10.2032
▁suficient	-10.2033
▁fulgi	-10.2034
▁luxuriantă	-10.2045
▁dimineţile	-10.2049
▁florale	-10.205
▁Lum	-10.2051
▁minute	-10.2054
▁eroi	-10.2059
▁zon	-10.206
▁nesfârşită	-10.2067
🚗💨	-10.2072
▁privi	-10.2072
▁sufletele	-10.2077
▁fizică	-10.2078
▁Cau	-10.2088
▁🎯	-10.209
▁confruntă	-10.2092
ub	-10.2101
▁⚾	-10.2103
💥🌟	-10.2107
▁amint	-10.2108
▁localnicii	-10.211
▁cufund	-10.2117
▁complicată	-10.2117
▁utilizare	-10.2125
▁sper	-10.2127
▁vieţile	-10.2137
▁cultiv	-10.2143
▁dansând	-10.2154
▁băuturi	-10.2161
▁drăguţi	-10.218
▁🏂	-10.2191
▁semn	-10.2196
🎉🙌	-10.2204
▁🌿💜	-10.2206
▁degete	-10.2206
▁cit	-10.221
▁intense	-10.2216
▁preparată	-10.222
▁🚜	-10.2224
obor	-10.2226
▁🚌	-10.2229
▁regatul	-10.2242
▁prajit	-10.2242
▁🌷	-10.2256
▁imens	-10.2257
▁👩	-10.2271
car	-10.2272
✨🌍	-10.2272
▁triumf	-10.2277
🌟🌈	-10.2291
▁😩	-10.231
▁🧺	-10.2349
riza	-10.2352
▁pozitivitate	-10.2371
▁👩‍⚕️	-10.2372
▁realiza	-10.2374
▁curte	-10.2378
▁🔍	-10.2378
🌧	-10.2378
▁susţin	-10.2378
🚁	-10.2386
G	-10.239
gheaţă	-10.2391
DIY	-10.2392
😌❤️	-10.2404
ly	-10.2406
▁Vă	-10.2409
eli	-10.242
▁🤝	-10.2427
▁gustul	-10.2431
▁🍁	-10.2446
▁nostalgic	-10.2448
⛷️	-10.2461
🐞	-10.2468
▁noroc	-10.247
▁cod	-10.2473
▁🤸‍♀️	-10.2476
▁🌪️	-10.248
ităţii	-10.2482
▁potrivit	-10.2487
▁stabil	-10.249
▁Lovi	-10.2502
▁prins	-10.2505
sul	-10.2506
▁🏙️🏢	-10.2508
🦈	-10.2512
🌨️❄️	-10.2516
🪡	-10.2523
▁emoji	-10.2527
▁eucalipt	-10.2528
❤	-10.253
entru	-10.2533
🔲	-10.2533
🌰	-10.2535
🍊	-10.2535
🕷️	-10.2535
🎻	-10.2535
💵	-10.2535
🦢	-10.2535
▁Trandafirii	-10.2535
▁arcade	-10.2535
▁arzătoare	-10.2535
▁cafenele	-10.2535
▁echipe	-10.2535
▁entuziaști	-10.2535
▁garderobă	-10.2535
▁multifuncţional	-10.2535
▁noștri	-10.2535
▁pantofi	-10.2535
▁puțin	-10.2535
▁răsfaţă	-10.2535
▁sfârșit	-10.2535
▁vitralii	-10.2535
🐣	-10.2535
🔉	-10.2535
🥼	-10.2535
▁Japoniei	-10.2535
▁altceva	-10.2535
▁bătaie	-10.2535
▁grabă	-10.2535
▁Confortabil	-10.2535
▁adiere	-10.2535
▁lista	-10.2535
▁rezistenţa	-10.2535
▁nepoţi	-10.2535
▁posibilități	-10.2535
▁Pregătiţi	-10.2535
▁declarație	-10.2535
▁fermecat	-10.2535
▁încurcate	-10.2535
burând	-10.2535
▁Fraţi	-10.2535
▁aventuros	-10.2535
▁Tatăl	-10.2536
▁sănătos	-10.2536
▁invitând	-10.2536
▁Ţestoasele	-10.2536
▁scuz	-10.2536
▁uşurare	-10.2536
▁Albinele	-10.2537
▁zen	-10.2537
▁foraj	-10.2537
▁luminoase	-10.2537
▁drept	-10.2538
▁bunăstarea	-10.2538
▁Leii	-10.2538
▁bucurându	-10.254
▁liniștitor	-10.254
frica	-10.2542
▁înscrie	-10.2545
▁roți	-10.2546
▁Blender	-10.2547
▁Ingineri	-10.2547
▁urechile	-10.2549
▁oportunităţi	-10.255
▁artist	-10.2551
oc	-10.2552
▁alții	-10.2552
▁satisfacţie	-10.2556
▁vineri	-10.256
▁pinguini	-10.256
▁poartă	-10.2561
▁dificilă	-10.2561
▁cântă	-10.2564
▁orizontului	-10.2568
▁vizionarea	-10.2569
▁pijamale	-10.2569
▁mistice	-10.257
Life	-10.2571
▁sens	-10.2572
▁fix	-10.2573
atii	-10.2573
▁explorat	-10.2575
▁satisfacții	-10.2577
▁necondiţionată	-10.2578
bină	-10.258
🧓	-10.2585
▁👩‍👧	-10.2587
💫🌟	-10.2589
▁☀️🌤️	-10.2592
▁sora	-10.2592
▁ploii	-10.2596
▁tradiţională	-10.2596
▁fraţii	-10.2596
▁iese	-10.2596
▁exotică	-10.2602
▁râsul	-10.2606
▁îndrăgostit	-10.2608
▁ș	-10.2611
▁încălzi	-10.2615
▁turnuri	-10.2615
▁💔😢	-10.2618
▁parcul	-10.2622
▁ex	-10.2635
▁🐱	-10.2635
✨💃	-10.2637
▁stârn	-10.264
▁interesante	-10.2648
▁strălucirea	-10.2652
🌴🌊	-10.2654
▁prăjitorul	-10.2666
▁3	-10.2668
▁🎨🌀	-10.2672
▁caut	-10.2679
▁profunde	-10.2684
▁🥞	-10.2697
▁comportamentul	-10.2702
▁măsurare	-10.2702
▁energizat	-10.2708
🌳🌞	-10.2723
🌊🌞	-10.2729
▁trandafiri	-10.2742
ții	-10.275
ție	-10.2754
ştie	-10.2762
asa	-10.2783
▁stimul	-10.2789
🔥😋	-10.279
▁Aventur	-10.2791
🌼🌺	-10.2791
▁Jachete	-10.2795
▁arat	-10.2801
▁Îmbrăţişare	-10.2803
▁Ave	-10.2812
▁be	-10.2816
▁spațiul	-10.2824
💪😎	-10.2839
▁aluneca	-10.2841
▁🗺️	-10.2843
▁blânde	-10.2848
▁simţ	-10.2849
zând	-10.286
▁✂️	-10.2864
▁🤔	-10.2867
▁învăţ	-10.2877
▁🪚	-10.2886
💯👌	-10.2889
▁fantastic	-10.2894
▁🎮	-10.2895
▁senine	-10.2899
▁😔💔	-10.2909
▁su	-10.2911
💖✨	-10.2913
🌸🍃	-10.2916
N	-10.2918
ang	-10.292
▁👥	-10.2925
🎉💃	-10.2927
▁scen	-10.2931
💥🎉	-10.2932
🚵‍♂️	-10.2935
▁uscat	-10.2936
👨‍💻	-10.2942
🐒	-10.2943
👨	-10.2945
▁suculentă	-10.2946
▁Dă	-10.2957
▁👦👧	-10.2962
▁celebr	-10.2962
▁repara	-10.2965
▁drag	-10.2974
ment	-10.2977
🌊🌅	-10.2986
▁distra	-10.2994
❤️🌟	-10.3006
🌯	-10.3008
🥊	-10.3013
▁participa	-10.3014
💪🔥	-10.3028
▁fior	-10.3034
pt	-10.3034
😍🔥	-10.3044
▁decor	-10.3047
▁cap	-10.3051
rling	-10.3051
▁petreceri	-10.3053
▁captur	-10.3055
▁asigura	-10.3056
▁sco	-10.306
▁☔🌧️	-10.3062
▁rupere	-10.3064
▁modelare	-10.3066
▁har	-10.307
ţe	-10.307
▁fotograf	-10.3071
▁mister	-10.3083
▁îngrij	-10.3084
▁trata	-10.3087
🐍	-10.3088
🚤	-10.3089
🍥	-10.309
🤸	-10.309
🫑	-10.309
🍬	-10.3091
👆	-10.3091
🧴	-10.3091
▁Fulgi	-10.3091
▁Majestic	-10.3091
▁diseară	-10.3091
▁distracţii	-10.3091
▁exercițiu	-10.3091
▁indulgent	-10.3091
▁patinaj	-10.3091
▁răbdare	-10.3091
▁răcoroase	-10.3091
▁safari	-10.3091
▁sănătoase	-10.3091
▁Şurubelniţ	-10.3091
🏾	-10.3091
💠	-10.3091
😒	-10.3091
▁Construi	-10.3091
▁pielii	-10.3091
🌂	-10.3091
🐉	-10.3091
🤠	-10.3091
▁națiun	-10.3091
▁paraşutism	-10.3091
▁Amestec	-10.3091
▁înălţime	-10.3091
🤹‍♀️	-10.3091
▁noştri	-10.3091
▁piețe	-10.3091
⛓️	-10.3091
🎟️	-10.3091
▁gheață	-10.3091
▁ieri	-10.3091
▁conținut	-10.3091
tool	-10.3091
▁naveta	-10.3091
▁liniștitoare	-10.3092
▁încrezător	-10.3093
▁masaj	-10.3093
⛰️🌲	-10.3095
▁Grecia	-10.3095
🤔💭	-10.3097
▁🐦	-10.31
▁comoară	-10.31
▁văzând	-10.3103
▁Ţ	-10.3103
▁Netflix	-10.3104
▁vreau	-10.3104
▁încărcat	-10.3104
▁Adrenalina	-10.3105
▁răsfățați	-10.3106
▁amestecă	-10.3107
😍❤️	-10.3108
▁Pred	-10.3109
▁clasă	-10.3113
▁urmări	-10.3114
▁sărituri	-10.3115
▁calda	-10.3115
▁loialitate	-10.312
▁coastei	-10.3121
▁înfloriri	-10.3137
▁formeaz	-10.3138
▁mâinile	-10.3139
▁extraordinare	-10.3141
▁fizice	-10.3151
▁raiul	-10.3153
🔥😎	-10.3153
▁întinerire	-10.3154
▁minţile	-10.3157
❤️🙏	-10.3173
🌟😍	-10.3174
❤️🤗	-10.3185
▁🏈	-10.3188
▁căsuţ	-10.3193
iei	-10.3193
▁fură	-10.3201
▁mingea	-10.3208
▁pictat	-10.3217
▁falnici	-10.3219
du	-10.322
🌼✨	-10.3226
▁pa	-10.3228
▁🌻☀️	-10.323
▁🤗❤️	-10.3235
✨🌌	-10.3236
▁🏃	-10.3242
👨‍👦	-10.3246
☀️🌊	-10.3253
▁🌫️	-10.3255
▁U	-10.3258
▁fur	-10.3265
▁futuristă	-10.3267
▁jucători	-10.328
▁relaxată	-10.328
Sâmbătă	-10.3287
fe	-10.3293
▁combinaţie	-10.3294
▁🚴‍♀️	-10.3297
▁🐨	-10.3298
ace	-10.3299
▁🍣🎨	-10.3301
▁puternici	-10.3302
🍽️😋	-10.3305
🌄🏞️	-10.3312
▁magnific	-10.3334
anc	-10.3353
😍🙌	-10.3367
▁conduc	-10.337
▁stomacul	-10.3375
✨🥰	-10.3377
▁Ho	-10.3392
▁rezolv	-10.3396
▁oric	-10.3399
▁rând	-10.3405
💥🔥	-10.3407
▁pure	-10.3411
one	-10.3417
▁nevoi	-10.3429
▁con	-10.3433
▁durabil	-10.3445
▁prăjit	-10.3447
▁eleganta	-10.3456
▁termen	-10.3471
tură	-10.3479
▁Vizita	-10.3483
ving	-10.3485
▁bunătatea	-10.3509
▁🐢	-10.351
▁reflect	-10.3514
▁baz	-10.3518
🐰	-10.3524
🚴‍♂️	-10.3526
⛸️	-10.3527
▁clasice	-10.3527
/	-10.3527
🎍	-10.3527
🍩	-10.3528
🛵	-10.3533
în	-10.3541
▁localnici	-10.3543
🏨	-10.355
▁mac	-10.3552
▁alimentar	-10.3564
▁dori	-10.3564
▁imbatabil	-10.3569
▁paste	-10.3571
▁aprind	-10.3577
▁vizitatori	-10.3577
▁🎨✨	-10.3579
🌟❤️	-10.3587
▁Do	-10.3597
💃🔥	-10.3601
tura	-10.3603
ite	-10.3616
▁🏐	-10.3623
▁dai	-10.3625
▁🧀	-10.363
▁Lucr	-10.3632
▁apel	-10.3633
ris	-10.3635
▁îngrijit	-10.3644
⛰️🏞️	-10.3645
🌋	-10.3649
🔥🎉	-10.365
▁centru	-10.3653
▁explod	-10.3654
▁pregătit	-10.3654
▁adăug	-10.3656
🎉🌈	-10.3661
▁🐶❤️	-10.367
▁încântă	-10.367
▁bucat	-10.3671
▁🐾	-10.3675
▁Bibliotec	-10.3676
▁Îmbrățiș	-10.3677
😕	-10.3677
▁🥑🍞	-10.3678
🧜‍♀️	-10.3679
🕸️	-10.3679
▁Pierde	-10.3679
👁️‍🗨️	-10.3679
💢	-10.3679
📲	-10.3679
🧮	-10.3679
dreaptă	-10.3679
▁Beetle	-10.3679
▁Imersiune	-10.3679
▁Simțind	-10.3679
▁artificii	-10.3679
▁cuvânt	-10.3679
▁eleganță	-10.3679
▁fantezie	-10.3679
▁fereastra	-10.3679
▁lipsit	-10.3679
▁mușcătură	-10.3679
▁nervos	-10.3679
▁pepperoni	-10.3679
▁precizia	-10.3679
▁satisfăcătoare	-10.3679
▁săptămâna	-10.3679
▁săptămână	-10.3679
▁tangy	-10.3679
▁viteza	-10.3679
▁zgomot	-10.3679
▁Şi	-10.3679
🍋	-10.3679
📿	-10.3679
🔘	-10.3679
🥜	-10.3679
▁surori	-10.3679
▁testament	-10.3679
▁înceapă	-10.3679
😘	-10.3679
▁Denim	-10.3679
▁potriveşte	-10.3679
🙅‍♀️	-10.3679
▁tabără	-10.3679
▁dispoziţie	-10.3679
▁înălţimi	-10.3679
🤹‍♂️	-10.3679
▁extaziat	-10.3679
▁groase	-10.3679
▁sculptură	-10.3679
▁alinare	-10.3679
șef	-10.3679
▁mulţime	-10.3679
🖍️	-10.3679
▁armonios	-10.368
▁panoramic	-10.368
▁epuizat	-10.3681
▁crocanţi	-10.3681
▁înotător	-10.3682
▁motor	-10.3683
▁necesita	-10.3683
▁minunate	-10.3683
▁gimnastică	-10.3684
▁mediul	-10.3684
▁cozi	-10.3685
▁👖🧥	-10.3688
uzi	-10.3688
▁catedrale	-10.3688
▁🎢😱	-10.3692
▁întortocheate	-10.3692
▁salvează	-10.3694
▁asociat	-10.3694
to	-10.3695
▁lingură	-10.3695
▁confortabili	-10.3699
▁rupe	-10.3708
▁vacanță	-10.3708
▁atins	-10.3708
▁miroas	-10.3709
Să	-10.3717
▁condimentat	-10.3719
▁ochilor	-10.3722
▁digitale	-10.3723
▁delicatese	-10.3723
▁şuruburile	-10.3726
▁întinse	-10.3732
▁drumuri	-10.3733
▁trup	-10.3736
▁satisface	-10.3741
▁⛳	-10.3743
▁autentic	-10.3748
💕😍	-10.375
▁telespectatori	-10.3752
▁esențiale	-10.3752
▁Ven	-10.3753
▁cunoaştere	-10.3757
ona	-10.377
▁inteligenţi	-10.3771
▁modei	-10.3778
▁In	-10.378
▁spații	-10.3781
▁🎥🍿	-10.3787
▁🛹	-10.3792
▁atrage	-10.3793
▁frumusetea	-10.3793
▁epice	-10.3795
▁experienţ	-10.3802
▁tăierea	-10.3804
▁ceresc	-10.3804
▁poticnire	-10.3804
▁fiori	-10.3806
▁soluţi	-10.3807
▁transformarea	-10.3811
▁agitată	-10.3813
sh	-10.3817
▁cuţit	-10.3822
▁marea	-10.3824
▁totală	-10.3824
ad	-10.383
▁momentul	-10.3839
▁li	-10.3844
▁munţilor	-10.3844
▁dezlănţui	-10.3848
tate	-10.3849
▁☀️😎	-10.3855
▁🎵🎶	-10.3858
💆‍♀️💆‍♂️	-10.3863
▁îmbunătăți	-10.3866
▁😱	-10.3887
🌱🌿	-10.3889
▁👩‍👧‍👦	-10.3901
▁înmuiat	-10.3902
▁arăta	-10.3903
▁servi	-10.3905
🔥💃	-10.3907
▁tur	-10.3909
▁Rochi	-10.3917
▁unitate	-10.3918
▁constantă	-10.3924
▁🍃	-10.394
▁Putere	-10.395
💪🏆	-10.3958
▁ro	-10.3967
▁străin	-10.397
▁proteja	-10.3987
ante	-10.3993
▁🏀🔥	-10.3996
▁fire	-10.3997
▁pofta	-10.4006
▁strângere	-10.4018
▁lucr	-10.4019
▁ciudat	-10.4022
tie	-10.4024
▁palpitante	-10.4025
🎉❤️	-10.4031
▁acestea	-10.4032
▁Bucuri	-10.404
▁...	-10.4044
▁Fă	-10.4057
▁pământul	-10.4058
▁trandafir	-10.4062
▁vârfuri	-10.4065
🌞🌊	-10.4067
▁purta	-10.4089
▁🌃	-10.409
▁🎓	-10.4095
F	-10.4098
▁oază	-10.4098
▁minţi	-10.4108
▁esenţial	-10.411
▁👚	-10.4118
▁puncte	-10.4119
▁teatru	-10.4122
💥💫	-10.4127
▁folosi	-10.4136
pi	-10.4139
▁gândire	-10.4142
▁salt	-10.4144
▁Încep	-10.4145
'	-10.4152
▁☀️🔥	-10.4153
🐙	-10.4155
inspirat	-10.4157
H	-10.4161
▁falnic	-10.4161
▁util	-10.4164
▁citit	-10.4171
arcă	-10.4175
▁distractivă	-10.4177
▁plictisitor	-10.4183
▁luând	-10.4183
▁săptămâni	-10.4183
Nim	-10.4183
seamn	-10.4192
▁🐧❄️	-10.4229
▁💖	-10.4234
▁arunca	-10.4238
▁ghid	-10.4252
chi	-10.4258
▁modeleaz	-10.4263
▁sistem	-10.4264
▁Ba	-10.4264
▁out	-10.4265
▁renum	-10.4274
rs	-10.4276
▁unghii	-10.4286
▁cresc	-10.4288
▁robot	-10.4291
▁Ridica	-10.4291
▁mobilier	-10.4297
🥥	-10.4298
🚒	-10.4299
▁gen	-10.4299
⛽	-10.4302
⚪	-10.4302
🇨🇭	-10.4303
🐑	-10.4303
🚑	-10.4303
🏌️‍♂️	-10.4304
▁graţia	-10.4304
▁Particip	-10.4304
👞	-10.4304
▁Spani	-10.4304
▁aprins	-10.4304
▁athleisure	-10.4304
▁baseball	-10.4304
▁blănos	-10.4304
▁combo	-10.4304
▁ochelari	-10.4304
▁prelucrare	-10.4304
▁rămas	-10.4304
▁terapie	-10.4304
▁tradiție	-10.4304
▁joasă	-10.4304
▁preţioase	-10.4304
🚩	-10.4304
🥙	-10.4304
🦴	-10.4304
🧄	-10.4304
▁pachet	-10.4304
▁păianjen	-10.4304
▁negri	-10.4304
▁impuls	-10.4304
▁pista	-10.4304
▁iubeșt	-10.4304
▁smoching	-10.4304
▁orbitoare	-10.4304
▁inovaţia	-10.4304
▁pufoasă	-10.4304
↗️	-10.4304
▁naţiune	-10.4304
▁urmează	-10.4304
▁slam	-10.4304
▁stralucitoare	-10.4304
▁video	-10.4304
▁🌅🌊	-10.4304
paced	-10.4304
▁brunch	-10.4304
▁Taco	-10.4305
▁perete	-10.4305
▁știu	-10.4306
▁iubitoare	-10.4306
▁inspiratoare	-10.4307
▁uşurinţă	-10.4308
▁durată	-10.4308
▁lumineze	-10.4309
▁dreapta	-10.4309
▁trend	-10.4309
▁visurilor	-10.4309
▁fascinează	-10.431
▁vorbesc	-10.431
▁sari	-10.431
▁prădători	-10.4311
▁întâlnesc	-10.4311
▁coordonare	-10.4315
▁robotic	-10.4317
▁drizzle	-10.4318
▁sparge	-10.4318
▁atenţia	-10.432
▁împrejurimile	-10.4321
▁suflă	-10.4321
▁pict	-10.4321
👩‍🔬	-10.4325
▁trunchiuri	-10.4325
▁crescând	-10.4326
▁fust	-10.4329
rații	-10.4329
▁montane	-10.4329
▁ornate	-10.4334
▁murale	-10.4334
▁🖌️	-10.4337
▁domină	-10.4341
▁răsăritul	-10.4343
💃🌟	-10.4351
▁scufundaţi	-10.4351
▁spiritele	-10.4355
▁nelimitate	-10.4356
▁superbă	-10.4356
▁peşte	-10.4357
▁inovare	-10.4357
▁parfumate	-10.4358
▁ecran	-10.4359
che	-10.4365
▁K	-10.4366
👀❤️	-10.4367
▁rurală	-10.437
▁diversă	-10.4372
▁meritat	-10.4372
▁japoneză	-10.4376
💪💥	-10.4377
▁🏎️💨	-10.438
▁divină	-10.4381
▁📝	-10.4385
▁moduri	-10.4386
▁Turnul	-10.4386
▁🇮🇹	-10.439
▁remarcabilă	-10.4391
▁drumului	-10.44
▁urma	-10.4407
▁alerg	-10.4411
▁cadou	-10.4417
pe	-10.4421
▁pompare	-10.4432
▁pura	-10.4446
▁buzunar	-10.4451
no	-10.4452
▁🛌	-10.4452
✨🎨	-10.4454
▁inimii	-10.4455
▁ador	-10.4458
▁vari	-10.4461
▁🥰	-10.4461
▁ferăstrău	-10.4463
🌿🌞	-10.4466
▁🏊‍♀️	-10.4467
▁salturi	-10.4468
👦👧	-10.4476
cina	-10.4484
▁scufundare	-10.4497
▁perspective	-10.4502
💕✨	-10.4505
▁emoţionante	-10.4511
▁jucăuşi	-10.4513
▁costumul	-10.4516
▁copil	-10.452
▁Mare	-10.4522
▁aerului	-10.4529
▁uitat	-10.4531
▁😂	-10.4534
bor	-10.4535
👀😍	-10.4548
▁respir	-10.4548
▁exprimă	-10.4553
❤️👀	-10.4558
▁1	-10.4559
▁uimitori	-10.4568
▁bucuri	-10.4573
▁bere	-10.4576
▁🍣❤️	-10.4579
▁conecta	-10.4591
▁rău	-10.4592
mp	-10.4594
👌🏻	-10.4597
▁inspirat	-10.4605
🌱✨	-10.4609
tic	-10.4614
▁sporturi	-10.4618
▁💜🌿	-10.462
▁melodi	-10.4635
▁mândră	-10.4644
▁rochi	-10.4656
🔥💥	-10.4659
💇‍♀️	-10.4662
▁😫	-10.4664
▁creştere	-10.4674
▁🛋️	-10.4679
▁turn	-10.4683
ț	-10.4685
▁unt	-10.4688
▁pos	-10.4694
▁lac	-10.4698
▁👯‍♀️	-10.4709
🏞️🌳	-10.472
✨🌻	-10.4723
abil	-10.4737
🎉✨	-10.4745
▁castelul	-10.475
br	-10.4753
▁👵👴	-10.4754
▁nebun	-10.4758
▁respira	-10.476
mer	-10.4761
ație	-10.4763
🏻‍♀️	-10.4765
▁captiva	-10.4768
ările	-10.4781
▁sălbatic	-10.4783
▁culinar	-10.4784
▁🌨️	-10.4791
▁întreagă	-10.4801
▁artistic	-10.4807
▁simboluri	-10.4808
ha	-10.4818
📰	-10.482
🇫🇷	-10.4823
🦘	-10.4823
🇮🇳	-10.4824
👕👖	-10.4827
▁grafici	-10.4828
▁amesteca	-10.4831
ua	-10.4843
▁furtuni	-10.4846
▁vast	-10.4847
❤️🌍	-10.4867
▁Ver	-10.4869
▁întind	-10.4874
▁vieți	-10.4875
▁provocări	-10.4878
▁supravieţui	-10.4885
▁jachete	-10.4886
▁întunecat	-10.4887
▁tehnologic	-10.4887
▁savur	-10.4888
▁esențial	-10.4888
▁explozi	-10.4889
▁rufe	-10.4892
▁cadru	-10.4892
▁strat	-10.4896
🎶🎵	-10.4899
▁Sa	-10.4901
▁sărit	-10.4917
💙✨	-10.4921
▁r	-10.493
▁rafturi	-10.4937
▁raz	-10.4938
▁radia	-10.4943
▁fluturi	-10.4944
▁liberă	-10.4949
▁artişti	-10.4952
💕🤗	-10.4953
💃🏽	-10.4953
▁ieşi	-10.4954
▁observ	-10.4963
▁ţes	-10.4965
🏔	-10.4966
🕊	-10.4966
⬇️	-10.4966
▁copleșit	-10.4967
🥋	-10.497
🎠	-10.497
▁limba	-10.497
😼	-10.4971
📋	-10.4971
😈	-10.4971
🟥	-10.4971
▁10	-10.4971
▁Ciocan	-10.4971
▁Obține	-10.4971
▁acuarelă	-10.4971
▁ciclism	-10.4971
▁cărămidă	-10.4971
▁delicioasa	-10.4971
▁distracţie	-10.4971
▁graţioşi	-10.4971
▁moralul	-10.4971
▁situaţie	-10.4971
▁întâmplă	-10.4971
▁şurubelniţa	-10.4971
🍧	-10.4971
🎑	-10.4971
👎	-10.4971
📞	-10.4971
🙇‍♀️	-10.4971
🤕	-10.4971
🦵	-10.4971
▁câine	-10.4971
▁insecte	-10.4971
🐎	-10.4971
💟	-10.4971
🩱	-10.4971
🪝	-10.4971
▁Blugi	-10.4971
🦷	-10.4971
🧬	-10.4971
▁părinte	-10.4971
Check	-10.4971
▁Ciudat	-10.4971
▁clicuri	-10.4971
▁Uita	-10.4971
▁margine	-10.4971
▁topire	-10.4971
▁curios	-10.4971
▁rezone	-10.4971
▁zboare	-10.4971
🗯️	-10.4971
▁Burst	-10.4971
▁Salut	-10.4971
▁inspiraţie	-10.4971
▁panza	-10.4971
▁sacou	-10.4971
▁Trăi	-10.4971
🖊️	-10.4971
🎖️	-10.4971
♾️	-10.4971
▁vital	-10.4972
▁condus	-10.4972
▁strălucește	-10.4972
▁luxoase	-10.4972
👩‍🎤	-10.4972
▁snowboarding	-10.4973
▁cool	-10.4973
oțiuni	-10.4973
▁jet	-10.4973
▁mama	-10.4974
▁scurţi	-10.4975
▁odihnit	-10.4975
▁strălucea	-10.4976
▁auriu	-10.4976
▁patrimoniul	-10.4976
▁sănătoasă	-10.4976
▁Sculptura	-10.4977
▁dăruire	-10.4978
▁cafeaua	-10.4979
❄️💨	-10.498
▁sosire	-10.498
▁Vara	-10.4981
▁oficial	-10.4982
▁podelele	-10.4983
▁puls	-10.4984
▁cine	-10.4986
▁Păş	-10.4986
▁rock	-10.4986
▁anxietate	-10.4986
▁Aş	-10.4991
▁terestre	-10.4991
▁Făc	-10.4993
▁plecat	-10.4993
▁alta	-10.4996
▁Con	-10.4998
ersul	-10.4998
▁societăţii	-10.5
▁🦦	-10.5002
▁Adu	-10.5002
▁obstacole	-10.5004
▁trucuri	-10.5007
▁maşini	-10.5009
▁frântă	-10.5011
▁tricouri	-10.5018
▁Sărbătorind	-10.5019
▁află	-10.5025
▁danseze	-10.5025
▁salată	-10.5026
▁populare	-10.5026
▁🎬🍿	-10.5028
nta	-10.5031
▁colecţie	-10.5032
▁🔌🔨	-10.5032
▁Prieteni	-10.5033
▁ieftină	-10.5033
▁avansată	-10.5034
🌌💫	-10.5039
▁echipament	-10.5042
👩‍🍳👨‍🍳	-10.5043
▁remarcabile	-10.5044
▁🦉	-10.5045
▁vibes	-10.5046
▁întinerit	-10.5054
▁fr	-10.5056
▁cheia	-10.5057
▁hain	-10.5057
▁the	-10.506
ip	-10.5062
💨🔥	-10.5068
art	-10.5076
▁potrivite	-10.5084
▁locului	-10.5092
▁ciudată	-10.5092
▁Combina	-10.5099
▁🪛	-10.51
▁imensă	-10.511
▁ideile	-10.5112
▁clare	-10.5114
▁picante	-10.5117
▁lupta	-10.5123
▁Ra	-10.5126
▁corpuri	-10.5135
▁so	-10.5136
▁🌌	-10.5146
▁absolută	-10.5146
📸✨	-10.5153
▁făcută	-10.5157
❤️😌	-10.5158
▁🍉	-10.5158
▁frunzelor	-10.5167
▁atemporale	-10.5169
▁bucătăriei	-10.5169
▁fulgere	-10.5184
▁Suculentele	-10.5191
▁întâlneşt	-10.5195
▁prind	-10.5215
💪🧠	-10.522
▁Al	-10.5222
🚶‍♀️🚶‍♂️	-10.5223
▁reuş	-10.5228
ill	-10.5236
😌🙏	-10.5237
🙏✨	-10.5241
▁vorbeşt	-10.5252
▁🕍	-10.5254
▁ghemuieşt	-10.526
ări	-10.5261
🔥😌	-10.5263
inge	-10.5264
ere	-10.5271
🏞️🌄	-10.5272
▁oh	-10.5278
💤😴	-10.5279
▁purtat	-10.5288
▁oferit	-10.5289
🧠✨	-10.5302
▁🌳🏞️	-10.5312
🌊🐠	-10.5313
▁❄️🔥	-10.5314
▁flutur	-10.533
▁Ex	-10.5332
▁uscător	-10.5333
▁🎧	-10.5338
🌈❤️	-10.5339
▁😬	-10.535
🖌️✨	-10.5351
▁vise	-10.5359
▁🛠️🔩	-10.5368
🎶🕺	-10.5373
▁temperatur	-10.5374
▁porni	-10.5379
▁💥	-10.538
▁deschide	-10.5392
▁🔪	-10.5395
▁talent	-10.541
▁stat	-10.5417
▁vibraţi	-10.5421
💨💪	-10.5422
✨🔥	-10.5423
low	-10.5426
▁echilibrul	-10.5429
🌳🌿	-10.5433
📽️	-10.5434
▁🚐🛣️	-10.5439
▁relaxarea	-10.5441
nu	-10.5456
▁calma	-10.546
ter	-10.5463
▁parcuri	-10.5467
▁băutur	-10.5469
▁spor	-10.5475
▁acoperi	-10.5477
▁uman	-10.5487
👀💭	-10.5489
🌱💚	-10.549
▁topit	-10.55
▁sărbător	-10.5502
▁câmp	-10.5515
▁abur	-10.5516
💃❤️	-10.5518
▁dezvălui	-10.552
🐇	-10.5533
🏒	-10.5533
🇮🇹	-10.5538
🛹	-10.5538
1	-10.5539
▁sistemul	-10.5541
▁roman	-10.5541
scop	-10.5545
❄️🏔️	-10.5545
▁str	-10.5548
▁bar	-10.5549
▁pălări	-10.5562
▁camere	-10.5562
▁animalele	-10.5567
▁compact	-10.5575
✨🌺	-10.5583
▁sfid	-10.5583
▁împlinit	-10.5584
▁țar	-10.5586
▁dinamic	-10.5596
▁sofisticat	-10.5597
▁medieval	-10.56
▁ies	-10.5609
▁cunoştinţe	-10.561
▁gustări	-10.5611
☀️🌳	-10.5611
▁obişnuit	-10.5612
nț	-10.5623
🙏❤️	-10.5634
▁primi	-10.5645
▁condiment	-10.565
▁slăbi	-10.5653
▁Co	-10.5659
▁ciocanul	-10.5664
▁proiectul	-10.5665
😍🥰	-10.5669
▁do	-10.5674
▁dealuri	-10.5676
💨✨	-10.5676
▁cartier	-10.5678
▁captura	-10.5678
🚵‍♀️	-10.5679
🗣	-10.568
🛋	-10.568
❄	-10.568
🧙‍♀️	-10.5681
▁distinct	-10.5681
Love	-10.5682
erul	-10.5683
▁diminea	-10.5683
🇬🇷	-10.5683
🎏	-10.5684
▁lent	-10.5684
👡	-10.5685
▁dram	-10.5685
🦐	-10.5685
🎃	-10.5685
🏪	-10.5685
🔷	-10.5685
🛩️	-10.5685
⌨️	-10.5685
▁afaceri	-10.5685
▁debloca	-10.5685
▁deosebi	-10.5685
▁tulpini	-10.5685
👾	-10.5685
🙀	-10.5685
🤚	-10.5685
ambalate	-10.5685
▁BBQ	-10.5685
▁adăpost	-10.5685
▁buchet	-10.5685
▁caleidoscop	-10.5685
▁fabulos	-10.5685
▁familii	-10.5685
▁fasole	-10.5685
▁furtuna	-10.5685
▁fuziune	-10.5685
▁gaură	-10.5685
▁grandoare	-10.5685
▁joace	-10.5685
▁pagini	-10.5685
▁pasionaţi	-10.5685
▁problemă	-10.5685
▁regnul	-10.5685
▁tapiseri	-10.5685
▁wasabi	-10.5685
🌚	-10.5685
👄	-10.5685
💩	-10.5685
🔢	-10.5685
🔱	-10.5685
🙊	-10.5685
🧃	-10.5685
〰️	-10.5685
▁Natură	-10.5685
▁ronţăi	-10.5685
▁ultra	-10.5685
🟣	-10.5685
▁bord	-10.5685
▁strădui	-10.5685
▁automat	-10.5685
▁mancare	-10.5685
▁Unchiul	-10.5685
▁adevarat	-10.5685
▁şopt	-10.5685
▁transcende	-10.5685
▁Căut	-10.5685
▁adevăraţi	-10.5686
▁Prinde	-10.5686
▁Adăugați	-10.5686
▁muzicală	-10.5686
To	-10.5686
mmers	-10.5686
▁Lasă	-10.5686
▁luxoasă	-10.5686
▁moştenire	-10.5686
▁Aduce	-10.5687
▁mărun	-10.5687
▁brută	-10.5687
▁înfloreşte	-10.5687
▁mirare	-10.5687
▁soia	-10.5687
▁surs	-10.5687
▁dragut	-10.5687
▁slujba	-10.5687
life	-10.5688
▁îmbrățișeze	-10.5688
▁vizită	-10.5688
▁nisipoase	-10.5688
▁crească	-10.5689
▁umil	-10.569
▁afecţiune	-10.569
▁desene	-10.5691
👨‍🔬	-10.5691
▁🏞️🥾	-10.5691
▁prietenos	-10.5692
▁finaliza	-10.5692
▁copleşitor	-10.5692
▁🥾🏞️	-10.5693
▁braţe	-10.5694
✨😊	-10.5695
▁feţe	-10.5695
▁Găsirea	-10.5696
▁fețe	-10.5696
▁frumuseții	-10.5698
▁plat	-10.5699
▁valoare	-10.5699
▁misterele	-10.57
▁oricui	-10.5701
▁Dori	-10.5702
▁răsfăţaţi	-10.5702
▁suprarealistă	-10.5704
▁ski	-10.5705
▁meciuri	-10.5706
▁lăsându	-10.5706
▁🎨🏙️	-10.5706
▁progresului	-10.5707
▁pregătiţi	-10.5708
▁diferență	-10.5713
▁Istori	-10.5713
ilt	-10.5714
▁destinaţie	-10.5714
▁soluții	-10.5714
▁capturat	-10.5714
▁Apusu	-10.5715
▁navighez	-10.5718
min	-10.5719
▁simplă	-10.5721
▁trage	-10.5721
▁viziona	-10.5721
‍	-10.5723
▁plăceri	-10.5725
▁primitori	-10.5726
▁Munc	-10.5732
▁specii	-10.5734
😌💤	-10.5734
▁udare	-10.5735
țele	-10.5737
▁caracteristici	-10.5743
🌺🌼	-10.5748
▁aș	-10.5752
ști	-10.5753
▁puloverului	-10.5755
💫❤️	-10.5756
▁💪🏋️‍♀️	-10.5756
▁crude	-10.5757
▁Tes	-10.5761
▁luminile	-10.5763
▁rezistente	-10.5764
▁provocările	-10.5765
▁👧🏻	-10.5771
▁obişnuite	-10.5772
🏆🎉	-10.5773
▁📺🍿	-10.5775
🌞🌈	-10.5776
▁ţinută	-10.5777
▁luxul	-10.5777
▁🏖️☀️🌊	-10.5778
▁ţărmuri	-10.5779
▁gusturi	-10.5782
🏡✨	-10.579
▁🦊	-10.579
▁🌊🏄‍♂️	-10.5791
🔥💦	-10.5793
▁delfinii	-10.5795
▁răsfăţ	-10.5798
uptorul	-10.5801
▁🇮🇳	-10.5806
▁strânse	-10.5807
▁inspirată	-10.581
▁alimentat	-10.5814
▁arătând	-10.5823
▁elemente	-10.5824
🏋️‍♀️💪	-10.5829
▁schimbă	-10.5835
▁Începe	-10.5842
▁udă	-10.5858
▁per	-10.5863
💼📈	-10.5863
▁problemele	-10.5865
ăr	-10.5866
▁prinderea	-10.5868
ăla	-10.5868
🌴🍹	-10.5868
▁❄️🌨️	-10.5871
🌈😍	-10.5875
tice	-10.5877
▁gândirea	-10.5881
▁cristalul	-10.5891
▁asigură	-10.5892
▁Gra	-10.5897
▁capta	-10.5899
▁💔	-10.5912
👨‍👩‍👧‍👦❤️	-10.5912
▁buna	-10.5915
😊💕	-10.5925
▁ultimul	-10.5927
▁⏳	-10.5942
▁amintes	-10.5948
▁cerească	-10.5948
▁🍂🍁	-10.595
▁faţad	-10.5953
👫💕	-10.5962
edă	-10.5962
🌿🌼	-10.5966
😌😍	-10.5966
▁tocuri	-10.5979
▁arăt	-10.5987
▁🇦🇺	-10.5989
▁🚗🛣️	-10.5991
L	-10.5998
▁protej	-10.6003
🌳🍃	-10.6004
▁temperaturi	-10.6006
▁🍕😍	-10.6007
▁alte	-10.6026
💖🌟	-10.603
▁Tre	-10.6032
▁🌙	-10.6042
🌌✨	-10.605
▁sări	-10.6052
realismul	-10.606
▁🏛️🎨	-10.6069
▁deal	-10.607
💪🙌	-10.6084
ty	-10.6086
💕🥰	-10.6087
▁🏝️	-10.61
▁Cas	-10.61
🌙✨	-10.6104
💨❄️	-10.6114
▁bol	-10.6148
ion	-10.6151
ting	-10.6159
🌆🌃	-10.6162
▁Arhitec	-10.6166
▁distractive	-10.6166
▁inteligenţ	-10.6176
▁lucrat	-10.6178
▁🍛	-10.618
🧠💡	-10.6203
▁Sur	-10.6204
▁biciclet	-10.6207
▁cartea	-10.6208
▁grij	-10.621
▁măsura	-10.6213
▁🤯	-10.6216
▁obicei	-10.6217
▁🍕😋	-10.6224
▁🍣🍱	-10.6231
▁diferit	-10.6231
🌟🎉	-10.6233
▁💆‍♀️	-10.6235
▁⛩️	-10.6237
▁strâng	-10.6239
🌟💫	-10.6252
▁creat	-10.6255
▁J	-10.6255
▁🔌🔩	-10.6258
🙌💪	-10.6259
ster	-10.6263
▁remarcabil	-10.6264
▁contemporan	-10.6264
▁fizic	-10.6265
▁ş	-10.6266
▁citi	-10.6266
🏖️🌴	-10.6268
💪😌	-10.6274
▁🚀	-10.6275
my	-10.6278
auzit	-10.6282
▁spiritualitate	-10.6289
▁tăiere	-10.6293
▁sol	-10.6293
🐨	-10.6293
▁strălucire	-10.6295
🍽	-10.63
🏙	-10.63
▁minge	-10.6301
▁stârneşt	-10.6301
▁loial	-10.6301
▁punctul	-10.6305
ho	-10.6306
🐱	-10.6306
🏐	-10.6307
⚾	-10.6308
▁public	-10.6309
îngrijire	-10.6311
▁burgeri	-10.6312
▁pacienţi	-10.6315
🍁🍂	-10.6317
🏎️💨	-10.6319
▁🐺	-10.6319
▁inginerie	-10.6332
▁împingând	-10.6337
▁magazin	-10.634
▁uimit	-10.634
▁competitiv	-10.6345
▁Emoţi	-10.6346
▁vină	-10.6347
▁transpir	-10.6362
▁financiar	-10.6364
▁major	-10.6368
▁senzați	-10.6373
🎥🍿	-10.6375
apoi	-10.6375
▁☺️	-10.6383
🏢🌇	-10.6385
cu	-10.6386
💥🌈	-10.6387
▁râu	-10.639
▁🌎	-10.6398
▁carnaval	-10.6404
tter	-10.6409
▁tăia	-10.6415
🌿🍃	-10.6436
zut	-10.6438
▁paie	-10.644
▁vindeca	-10.6441
▁adevărul	-10.6444
🌅😍	-10.6446
▁hoinar	-10.6446
▁desfăş	-10.6447
🧀🍅	-10.6448
zvoltator	-10.645
🧅	-10.6451
🐄	-10.6451
🍙	-10.6452
▁mersul	-10.6452
🤵	-10.6453
▁caracter	-10.6454
🐯	-10.6454
✉️	-10.6454
🏇	-10.6454
↕️	-10.6454
🛑	-10.6454
🩲	-10.6454
🪁	-10.6454
dropping	-10.6454
heeseburger	-10.6454
swag	-10.6454
▁Eiffel	-10.6454
▁Fratii	-10.6454
▁Rătăc	-10.6454
▁Snuggl	-10.6454
▁VW	-10.6454
▁arțar	-10.6454
▁comunitate	-10.6454
▁dulap	-10.6454
▁hochei	-10.6454
▁lounging	-10.6454
▁noastra	-10.6454
▁rezistenţei	-10.6454
▁wireless	-10.6454
▁zâmbeşte	-10.6454
▁înstelat	-10.6454
🆗	-10.6454
📌	-10.6454
🥀	-10.6454
🦶	-10.6454
▁Ciclism	-10.6454
▁deopotrivă	-10.6454
▁portocaliu	-10.6454
▁îmbrac	-10.6454
🔃	-10.6454
😪	-10.6454
😯	-10.6454
🚍	-10.6454
🦔	-10.6454
🫖	-10.6454
*	-10.6454
▁aragaz	-10.6454
▁scăpa	-10.6454
☝️	-10.6454
💾	-10.6454
😡	-10.6454
🧆	-10.6454
▁violet	-10.6454
▁întreţinere	-10.6454
🏣	-10.6454
▁Franţa	-10.6454
▁meargă	-10.6454
▁mixer	-10.6454
👩‍🦱	-10.6454
▁şuncă	-10.6454
▁niciodata	-10.6454
▁avion	-10.6454
▁Nivel	-10.6454
▁călduroasă	-10.6454
▁înmoi	-10.6454
☄️	-10.6454
▁inghetata	-10.6455
▁sandale	-10.6455
▁☀️🌳🧺	-10.6455
▁savuroase	-10.6455
▁lovește	-10.6455
✖️	-10.6455
💆🏻‍♀️	-10.6455
▁aromatice	-10.6455
▁dupa	-10.6456
▁serios	-10.6456
▁maro	-10.6457
▁linie	-10.6457
▁spectaculoase	-10.6458
▁menține	-10.6458
▁prietenoase	-10.6458
▁Lalele	-10.6459
☀️💦	-10.6459
▁ştiinţă	-10.6459
▁fotografie	-10.646
▁asigurându	-10.6461
▁albine	-10.6461
▁reduce	-10.6463
ler	-10.6463
▁misterioase	-10.6464
▁câştigător	-10.6464
olk	-10.6464
▁urcat	-10.6464
▁privit	-10.6464
▁atenţie	-10.6465
😊💖	-10.6465
▁deja	-10.6468
▁mișcări	-10.6468
▁galerii	-10.6469
0	-10.647
▁înving	-10.647
▁Cactusul	-10.647
▁artistului	-10.647
▁euforie	-10.6471
▁străpunge	-10.6472
👏🏼	-10.6473
ped	-10.6473
▁patr	-10.6474
▁primesc	-10.6476
▁stea	-10.6476
▁spirituală	-10.6476
🔥🙌	-10.6477
▁turistice	-10.6478
▁radiante	-10.6478
▁companion	-10.6481
▁normele	-10.6481
▁limbajul	-10.6486
▁fum	-10.6487
▁minimă	-10.649
▁transmite	-10.6492
▁comunică	-10.6493
▁salvat	-10.6493
▁fermă	-10.6496
▁şef	-10.6496
▁furtunoasă	-10.6501
▁construiesc	-10.6503
▁simțurile	-10.6505
▁Pur	-10.6509
▁luptă	-10.651
▁romantice	-10.6513
▁legat	-10.6513
tatea	-10.6516
▁râuri	-10.6518
ning	-10.6518
▁netedă	-10.6519
ps	-10.6526
▁dansezi	-10.6532
🍔🍟	-10.6534
▁lăsați	-10.6534
▁răspândind	-10.6534
▁electrizantă	-10.6537
☕🔥	-10.6538
▁Vis	-10.6539
ești	-10.6551
acul	-10.6552
▁tehnologice	-10.6552
▁blană	-10.6558
▁straturi	-10.6559
▁conta	-10.6561
▁uimită	-10.6563
▁estetica	-10.6567
▁loiali	-10.6567
▁apreciere	-10.657
▁umană	-10.6572
🌄😍	-10.658
▁🌿🍃	-10.658
▁aromate	-10.6589
🔥💨	-10.659
▁Cheia	-10.6592
▁nas	-10.6597
of	-10.6606
▁îmbrăţişat	-10.6607
▁Fluturi	-10.661
▁dealurile	-10.6616
▁importante	-10.6621
▁🦘	-10.6624
▁tradiţie	-10.6624
▁scot	-10.6626
▁mile	-10.6631
▁📚📖	-10.6636
▁☀️🌡️	-10.6638
⛰️🌄	-10.6643
🌱💪	-10.665
▁curaj	-10.6654
💦✨	-10.6665
▁ferestrele	-10.6666
erii	-10.6685
torul	-10.6696
🎉🥳	-10.6698
▁🌵💪	-10.6706
▁rezolva	-10.6708
🚶‍♀️🌳	-10.6713
▁🌲🏞️	-10.6723
▁degetel	-10.6735
✨🌅	-10.6738
▁urbană	-10.6739
▁adauga	-10.6743
✨🔮	-10.6748
🌼🌻	-10.6749
👫❤️	-10.675
▁reprezent	-10.6754
ătoare	-10.6756
Se	-10.6766
▁🏊	-10.6779
▁blan	-10.6782
▁întorcând	-10.6788
▁porn	-10.6796
nţi	-10.6796
atul	-10.6811
😂❤️	-10.6812
▁bucurii	-10.6829
🤩😍	-10.6837
▁coloan	-10.6842
▁🍿🎥	-10.6846
▁🏙️🌆	-10.6851
▁✍️	-10.6853
▁servit	-10.6854
▁loves	-10.686
▁arunc	-10.6861
🍴😋	-10.6863
🌊☀️	-10.6865
▁tari	-10.6866
▁împărtăș	-10.6873
✨❄️	-10.6881
ntă	-10.6897
erou	-10.6917
▁sculpt	-10.6931
▁modelez	-10.6933
▁graţiei	-10.694
▁🏍️🛣️	-10.6944
oată	-10.6959
▁maxim	-10.696
▁muzicale	-10.6962
▁întâlnire	-10.6968
▁❄️⛄	-10.6976
tia	-10.6983
▁🍹	-10.6984
🌳🌺	-10.6989
▁pregăti	-10.7
▁☀️🏖️🌊	-10.7004
▁mașin	-10.7014
▁respiră	-10.7015
▁🎉🙌	-10.7016
✨👌	-10.7017
time	-10.7018
▁trecută	-10.702
sp	-10.7021
▁perspectiv	-10.7026
👥💪	-10.703
👗✨	-10.7041
▁întregul	-10.7047
▁templu	-10.7053
🎨❤️	-10.7055
▁🌸🌿	-10.7073
▁raft	-10.7077
💼💰	-10.7079
▁eveniment	-10.7079
💪🎉	-10.7085
▁🎬	-10.7091
▁exotic	-10.71
👩🏻‍	-10.7107
▁cufunda	-10.7108
⛳	-10.7108
▁abstract	-10.7109
uci	-10.7109
▁pătur	-10.711
🌟🔥	-10.7111
🌕	-10.7112
▁determinare	-10.7116
▁perfecţiune	-10.7116
▁frumusete	-10.7126
▁juca	-10.7129
🌅🌄	-10.7129
🙌🏽	-10.7131
🚀🌌	-10.7133
🐅	-10.7134
▁pădurii	-10.7134
🎲	-10.7138
▁prindere	-10.7138
🦩	-10.7138
▁schimbare	-10.714
🏈	-10.7142
pompare	-10.7142
go	-10.7143
🎨🎉	-10.7149
▁urmat	-10.715
▁di	-10.716
😋👌	-10.716
son	-10.716
▁împărtăși	-10.716
▁jungle	-10.7171
✨💖	-10.7173
▁rupt	-10.7173
▁tai	-10.7175
▁reţet	-10.7177
▁ţărm	-10.7178
▁scăzut	-10.7183
▁cocktail	-10.7184
▁ţinut	-10.7197
▁👭	-10.7199
bsolut	-10.72
▁descrie	-10.72
▁trez	-10.72
▁subacvatic	-10.7202
▁crud	-10.7204
💥❤️	-10.7205
▁tricotat	-10.7205
▁dorm	-10.7206
iile	-10.7211
▁mâini	-10.7214
▁întreg	-10.7218
▁grup	-10.7222
▁Ap	-10.7225
🏊‍♀️💦	-10.7231
🌈🎉	-10.7239
▁run	-10.7242
▁Experien	-10.7248
🌿🌻	-10.7251
▁🏡🌳	-10.7256
🌞💛	-10.7256
asă	-10.7258
▁produc	-10.7263
▁albi	-10.727
▁😭	-10.7273
▁fiesta	-10.7275
🙏💕	-10.7277
💚🌿	-10.7279
🃏	-10.7279
🗺	-10.7283
🕰	-10.7283
👷	-10.7284
▁îmbunătăţ	-10.7284
👼	-10.7286
👩‍👦‍👦	-10.7287
Y	-10.7287
🐓	-10.7287
▁călduro	-10.7287
▁Drum	-10.7287
▁Exprim	-10.7287
▁Vidr	-10.7287
🌝	-10.7287
🧉	-10.7287
▁Pierdu	-10.7288
▁asistenț	-10.7288
▁ceremonii	-10.7288
▁găzdui	-10.7288
▁jambiere	-10.7288
▁labirint	-10.7288
▁şurubelniţe	-10.7288
▁Ști	-10.7288
🚢	-10.7288
🚶🏻‍♂️	-10.7288
🛥️	-10.7288
🩸	-10.7288
păşeşt	-10.7288
▁Frumoas	-10.7288
▁agitaţia	-10.7288
▁evidenţă	-10.7288
▁flanel	-10.7288
▁limbă	-10.7288
▁limpede	-10.7288
▁minunaţi	-10.7288
▁măiestrie	-10.7288
▁ocazia	-10.7288
▁polenizatori	-10.7288
▁păcii	-10.7288
▁reciproc	-10.7288
▁retro	-10.7288
▁reîncărca	-10.7288
▁vitamin	-10.7288
▁împăcat	-10.7288
▁șarpe	-10.7288
👓	-10.7288
📡	-10.7288
🗞️	-10.7288
🙄	-10.7288
🛄	-10.7288
🤟	-10.7288
▁Nopţi	-10.7288
▁lavanda	-10.7288
▁margini	-10.7288
▁mărimea	-10.7288
▁scriitor	-10.7288
▁tânj	-10.7288
🔇	-10.7288
🚄	-10.7288
▁perfecțiune	-10.7288
▁web	-10.7288
▁aseară	-10.7288
▁divertisment	-10.7288
▁guacamole	-10.7288
▁liniste	-10.7288
▁fundal	-10.7288
▁convenabil	-10.7288
↪️	-10.7288
▁dramatic	-10.7288
▁Film	-10.7288
▁Ahh	-10.7288
▁răcoritor	-10.7288
▁glorios	-10.7288
▁mere	-10.7288
▁penaj	-10.7289
▁linia	-10.7289
▁retragere	-10.7289
🌳🌸	-10.7289
▁Pune	-10.7289
▁vid	-10.7289
▁garantat	-10.7289
🦓	-10.7289
▁ninge	-10.7289
▁Scri	-10.729
▁crescut	-10.729
▁consolare	-10.729
▁lovitură	-10.729
▁trendy	-10.7291
▁ţesut	-10.7291
▁luxos	-10.7291
▁Ceaţ	-10.7291
▁universului	-10.7293
▁vită	-10.7294
▁clatite	-10.7294
▁Jo	-10.7294
▁regine	-10.7295
▁👗🖤	-10.7295
▁🏔️🥾	-10.7295
▁povestiri	-10.7297
▁întâln	-10.7298
▁veni	-10.7298
▁banda	-10.7298
▁brațe	-10.7299
▁definiţi	-10.73
▁plimbându	-10.7302
▁eterică	-10.7302
▁realităţii	-10.7304
▁paiete	-10.7305
▁seama	-10.7308
▁Oh	-10.7311
▁Mult	-10.7311
▁🎨✍️	-10.7314
▁fluturând	-10.7315
▁viselor	-10.7316
▁trei	-10.7317
🖼️🎨	-10.7317
▁generaţie	-10.7318
▁gaz	-10.732
▁muntoase	-10.7321
▁umbră	-10.7321
▁dansatori	-10.7322
▁utilizat	-10.7322
▁topesc	-10.7324
▁construit	-10.7326
▁țip	-10.7329
▁potrives	-10.7329
🏖️😎	-10.733
▁mentală	-10.733
✨🌿	-10.7331
vărul	-10.7331
▁capului	-10.7331
▁fier	-10.7334
▁faimoas	-10.7336
ță	-10.7337
🔥🌟	-10.7339
🏌️‍♀️	-10.7344
👌🏽	-10.7344
▁lasa	-10.7344
▁superbe	-10.7346
▁excelentă	-10.7349
▁emoţionale	-10.7351
▁evoca	-10.7354
▁grupuri	-10.7354
💪😊	-10.7362
▁suflare	-10.7363
tors	-10.7363
▁inter	-10.7366
▁neclar	-10.7367
▁angajez	-10.7368
▁arhitecturală	-10.7368
▁💃🕺	-10.737
▁💔😔	-10.7371
▁castelelor	-10.7372
▁conversaţii	-10.7375
▁ba	-10.7378
▁publice	-10.7381
▁copacilor	-10.7384
▁tristă	-10.7386
▁găseşt	-10.7388
▁întunecate	-10.7394
▁rezistenta	-10.7395
▁înfăşurat	-10.7397
▁mişcă	-10.7397
▁raze	-10.7403
💭🌟	-10.7407
ște	-10.7407
▁✈️🌍	-10.7409
▁Măsur	-10.741
▁efect	-10.7412
▁🔆	-10.7413
▁combinație	-10.7414
▁povestire	-10.7417
per	-10.7421
▁schimb	-10.7423
☀️🌴	-10.7424
▁divin	-10.7425
▁poezie	-10.7428
🏞️😌	-10.7429
▁grozave	-10.7434
▁esenţială	-10.7435
▁Pi	-10.7435
▁lalele	-10.7444
▁ridice	-10.7445
▁lumini	-10.7446
▁paşnice	-10.7449
▁Cra	-10.7454
▁🍕🔥	-10.7467
▁continuă	-10.7469
▁îmbrățișat	-10.747
▁🇫🇷	-10.7472
▁leagănă	-10.7472
🌳🌻	-10.7474
▁Bucătari	-10.7477
▁jucăușe	-10.7479
▁🏀💪	-10.7482
▁turme	-10.7489
▁🐙	-10.7491
🌄🌅	-10.7493
adio	-10.7495
Ca	-10.7498
▁liniștite	-10.7499
▁🌧️📚	-10.7501
▁sprijini	-10.7503
▁😋	-10.7514
▁vehicul	-10.7515
▁antrenantă	-10.7522
▁mie	-10.7525
🌿🌍	-10.7527
▁îndeplinit	-10.7528
ast	-10.7531
▁cerului	-10.7532
🌀💥	-10.7537
📚📖	-10.7537
▁speciale	-10.7541
▁fan	-10.7553
🧚‍♀️✨	-10.7556
▁🎿	-10.7557
🎶💃🕺	-10.7561
▁🍿	-10.7563
▁🥑	-10.7563
😍🌟	-10.7568
▁Tot	-10.7569
▁creații	-10.7575
🏞️✨	-10.7578
▁îmbarc	-10.7581
🥰❤️	-10.7586
op	-10.7587
🌺🍃	-10.7597
▁comunicare	-10.7605
▁prezentat	-10.7607
▁relaxezi	-10.7614
▁🗻	-10.7622
▁👨‍👧‍👦	-10.7628
▁adâncuril	-10.7629
▁suflete	-10.7629
🏔️🌲	-10.7636
▁curăţare	-10.7638
▁exprimare	-10.7641
▁🏫	-10.765
Stai	-10.765
▁agilitatea	-10.7662
▁sare	-10.7664
💔😢	-10.7665
ers	-10.7668
▁pluti	-10.7674
🏊‍♀️🌊	-10.7674
▁💰	-10.7686
🔍💡	-10.7688
mon	-10.7691
▁ajut	-10.77
▁lupte	-10.7708
▁🧘‍♂️	-10.7711
▁El	-10.7723
atori	-10.7729
ada	-10.7731
▁Apel	-10.774
🙌✨	-10.7751
💫😌	-10.7758
ură	-10.776
tat	-10.7766
❄️🔥	-10.7767
▁trecute	-10.7772
▁Eu	-10.7773
🔳	-10.7778
sur	-10.7796
▁🍁🍂	-10.7798
▁Vi	-10.78
▁scopul	-10.7807
👀✨	-10.7816
▁Poa	-10.7824
▁încercare	-10.7826
▁leg	-10.7831
🥓	-10.7833
🍃🏞️	-10.7834
▁monumente	-10.7835
👭❤️	-10.7836
pping	-10.7837
💼👔	-10.784
aţii	-10.7848
▁Pulovere	-10.7854
🌈💖	-10.7857
▁🥗	-10.7864
💡💭	-10.7866
▁🍫	-10.7868
🎭✨	-10.789
🤔💡	-10.7894
▁trezire	-10.7896
▁🧊	-10.7897
▁mesaj	-10.7904
ză	-10.7913
🌊😎	-10.7914
▁corp	-10.7917
▁Vederi	-10.7917
▁sate	-10.7918
🤜	-10.792
ătura	-10.7925
💦🔥	-10.7927
💥👀	-10.7932
🏠❤️	-10.7944
🌳✨	-10.7948
▁ud	-10.7952
▁experienț	-10.7953
ătorii	-10.7956
▁armoni	-10.796
💕🌟	-10.7963
❄️❄️	-10.7977
▁🧥❄️	-10.798
▁excursi	-10.798
▁birou	-10.7984
▁pierd	-10.7989
✨🚀	-10.7993
ven	-10.7997
▁rustic	-10.8
▁extraordinar	-10.8004
▁neaşteptat	-10.8008
▁tradiţional	-10.8008
▁nesfârşit	-10.8009
▁rafinat	-10.8009
▁Mod	-10.801
👩‍🏫	-10.8016
▁îngheţat	-10.8021
▁bunici	-10.8021
▁🎈	-10.8021
✨🏠	-10.8023
▁👩‍🏫	-10.8027
▁prietenul	-10.8033
🛋️😌	-10.8035
▁adun	-10.8036
🏛	-10.804
🏚️	-10.8041
👩‍❤️‍👩	-10.8045
🚛	-10.8047
🦒	-10.8047
V	-10.8052
🇧🇷	-10.8053
În	-10.8054
▁⛳🏌️‍♂️	-10.8063
▁🌧️💦	-10.8065
📚🌟	-10.8067
▁vo	-10.8069
▁explorare	-10.8072
▁nesigur	-10.8073
▁frumuseţi	-10.808
▁galerie	-10.8082
🌞💪	-10.8082
▁nepreţuit	-10.8083
▁renunţ	-10.8083
▁credinţ	-10.8083
▁îmbrăţişa	-10.8085
▁fulger	-10.8086
▁ideal	-10.8086
🍃✨	-10.8086
🔌⚡	-10.8088
▁mame	-10.8089
▁japonez	-10.8091
▁trist	-10.8091
ping	-10.8091
▁admira	-10.8098
▁şuruburi	-10.8107
▁gânduri	-10.8108
💕💖	-10.8109
🌿🌳	-10.811
▁curată	-10.8112
▁minut	-10.8114
▁👋	-10.8115
🚣‍♂️	-10.8115
mentul	-10.8119
▁strada	-10.8122
▁up	-10.8124
▁dimineţi	-10.8124
▁planuri	-10.8125
▁Orhidee	-10.8125
▁călca	-10.8128
▁învăţa	-10.813
▁dou	-10.8132
▁haos	-10.8134
▁renumit	-10.8138
▁funcţional	-10.8141
😎🔥	-10.8152
🌿😌	-10.8156
▁jucă	-10.8157
🌞🌴	-10.8158
▁șurub	-10.8159
▁preţui	-10.8159
▁nepoatel	-10.8163
✨🖌️	-10.8165
▁🇯🇵⛩️	-10.8166
barca	-10.817
🎡	-10.8174
▁întins	-10.8178
▁artiști	-10.8178
▁pl	-10.8179
🖌	-10.8182
▁Sculpt	-10.8184
▁rege	-10.8185
▁vibe	-10.8186
▁🥾⛰️	-10.8192
🏝	-10.8192
🌡	-10.8192
▁Găt	-10.8193
▁împuternic	-10.8195
🎅	-10.8195
▁percep	-10.8195
▁rula	-10.8195
arfumul	-10.8196
▁acces	-10.8196
🫐	-10.8196
ocalnicii	-10.8196
🎺	-10.8196
💏	-10.8197
🕓	-10.8197
▁contrast	-10.8197
▁fuzion	-10.8197
▁inexplicabil	-10.8197
▁optimist	-10.8197
▁tehnologii	-10.8197
🎫	-10.8197
🧑‍🌾	-10.8197
▁Frigiderul	-10.8197
▁Transforma	-10.8197
▁acord	-10.8197
▁chemare	-10.8197
▁colecți	-10.8197
▁cunoștințe	-10.8197
▁cutreier	-10.8197
▁entuziast	-10.8197
▁grațios	-10.8197
▁gătesc	-10.8197
▁importanţ	-10.8197
▁impresioniste	-10.8197
▁includ	-10.8197
▁kilometr	-10.8197
▁lavandei	-10.8197
▁minivan	-10.8197
▁principal	-10.8197
▁roșu	-10.8197
▁spaghete	-10.8197
▁stadion	-10.8197
▁surprize	-10.8197
▁susținere	-10.8197
▁travers	-10.8197
▁upgrade	-10.8197
▁uşoare	-10.8197
▁vacanţa	-10.8197
▁volume	-10.8197
▁zapada	-10.8197
▁întunecaţi	-10.8197
▁înțelepciune	-10.8197
▁șemineu	-10.8197
🎙️	-10.8197
🎣	-10.8197
🎽	-10.8197
😨	-10.8197
🥭	-10.8197
🥱	-10.8197
⛔	-10.8197
❔	-10.8197
🐴	-10.8197
↖️	-10.8197
▁misterios	-10.8197
▁pompier	-10.8197
🍼	-10.8197
▁roșii	-10.8197
▁greutăţi	-10.8197
▁Plut	-10.8197
▁apropiaţi	-10.8197
▁Frumusețe	-10.8197
👮‍♀️	-10.8197
▁invita	-10.8197
▁prada	-10.8197
🙅‍♂️	-10.8197
🙆‍♀️	-10.8197
▁🤖🧹	-10.8197
▁Storc	-10.8197
▁geamuri	-10.8197
▁ușoară	-10.8197
▁mobilei	-10.8197
▁alpinism	-10.8197
▁hobby	-10.8197
🙋‍♂️	-10.8197
▁aventuroasă	-10.8197
▁poli	-10.8197
▁groasă	-10.8197
▁Lipse	-10.8197
▁culmin	-10.8197
↩️	-10.8197
▁umed	-10.8197
▁somon	-10.8197
▁potecă	-10.8197
▁Atinge	-10.8197
▁Camion	-10.8197
❤️‍🔥	-10.8197
⛏️	-10.8197
▁pătate	-10.8197
▁seminţe	-10.8197
▁textura	-10.8197
▁capsator	-10.8197
▁progrese	-10.8197
▁sculptura	-10.8197
▁covor	-10.8197
▁pânze	-10.8198
▁RV	-10.8198
▁bani	-10.8198
▁întineritoare	-10.8198
👨‍🌾	-10.8198
▁norocos	-10.8198
amieze	-10.8198
▁surprins	-10.8198
▁meșteșuguri	-10.8199
▁funcţionează	-10.8199
▁măsurători	-10.8199
▁agățat	-10.8199
▁Prăjituri	-10.82
▁domn	-10.82
!?️	-10.8201
▁rulare	-10.8201
▁curând	-10.8201
🏖️🌊	-10.8202
▁aceea	-10.8202
▁graţioasă	-10.8202
▁artizanat	-10.8203
▁cercuri	-10.8203
▁Lumin	-10.8203
▁podea	-10.8203
▁roade	-10.8205
▁Vibraţii	-10.8205
▁Entuziasm	-10.8205
▁Îmbrăţişează	-10.8205
▁Energia	-10.8205
▁branza	-10.8205
▁moi	-10.8206
▁adâncimi	-10.8206
▁ştia	-10.8207
▁ceaţă	-10.8207
⛰️🌊	-10.8209
▁spumante	-10.8209
stop	-10.821
▁❄️🧥	-10.8212
▁blugii	-10.8212
▁asculta	-10.8214
▁Ridicați	-10.8216
▁Model	-10.8218
▁🦥	-10.8218
▁🦝	-10.8218
▁productivitate	-10.822
▁privat	-10.822
▁📚🏛️	-10.8221
▁Încerc	-10.8221
cre	-10.8224
▁☕⏰	-10.8224
▁ireal	-10.8225
▁mâncării	-10.8226
▁elevii	-10.8226
▁neon	-10.8228
▁fluiere	-10.823
▁solo	-10.8233
▁grijulie	-10.8233
▁rețete	-10.8233
▁infinite	-10.8234
▁pârtiile	-10.8236
▁alge	-10.8236
dy	-10.8236
▁păsărilor	-10.824
▁🔨💥	-10.8243
▁bat	-10.8244
▁priveliste	-10.8245
▁simțiți	-10.8245
▁apartamente	-10.8246
▁deține	-10.8248
▁satisfacție	-10.825
👩‍🌾	-10.8251
▁sărind	-10.8255
▁acrobaţii	-10.8259
▁conect	-10.8261
▁🍓	-10.8262
▁pauză	-10.8264
🌟💃	-10.8265
✨🌞	-10.8265
▁calmează	-10.8265
▁joggeri	-10.8267
▁arătat	-10.8268
🌸💐	-10.8272
▁cântecele	-10.8273
⏳✨	-10.8273
▁industria	-10.8276
▁margarete	-10.8276
▁media	-10.8276
▁apare	-10.8276
▁lună	-10.8277
🤝❤️	-10.8277
▁majore	-10.8279
ism	-10.828
▁home	-10.8284
▁elibera	-10.8284
▁noţiun	-10.8286
▁Chei	-10.8287
▁intrat	-10.8288
▁🛠️🔧	-10.8291
▁tricotate	-10.8291
🌊🐬	-10.8293
▁experimentat	-10.8294
▁populară	-10.8295
▁amuzantă	-10.8296
▁dragostei	-10.8297
▁medievale	-10.8307
▁🐒	-10.8307
📚☕	-10.8308
💡🔧	-10.8309
▁🐘🌍	-10.8309
▁🕊️	-10.8312
▁👗💃	-10.8313
▁turle	-10.8314
▁🚙🏞️	-10.8318
▁mamei	-10.8318
▁stilului	-10.8318
▁🌻☀️💛	-10.8322
▁modernitatea	-10.8324
▁setări	-10.8326
▁🏢🏙️	-10.8332
▁bea	-10.8339
▁🏛	-10.8346
▁vântului	-10.8348
▁🚛	-10.8349
▁întâmpin	-10.8354
▁👩‍⚕️💉	-10.8356
▁bucure	-10.8358
▁sarcinile	-10.8358
▁gustare	-10.8362
ţele	-10.8363
📚✨	-10.8367
▁pensulele	-10.8371
▁fluturii	-10.8372
▁🧘	-10.8374
▁râde	-10.8376
🎨🎭	-10.8386
ativ	-10.8386
▁celebrare	-10.839
▁siguran	-10.839
▁Go	-10.8393
▁catedralei	-10.8394
▁antrenante	-10.8399
▁grozavă	-10.8401
▁învinge	-10.8404
▁📰	-10.8406
▁schimbarea	-10.8417
▁🏙️🌇	-10.8422
zor	-10.8422
🌻🌞	-10.8426
▁mașini	-10.8429
▁cutie	-10.8432
✨🌱	-10.8433
▁📐	-10.8436
▁purifica	-10.8442
▁🏥	-10.8445
▁atârna	-10.8446
ţei	-10.8448
pat	-10.8449
▁💃🎶	-10.845
😢💔	-10.8453
▁vederea	-10.8455
▁canale	-10.8458
▁🚁	-10.8465
🌅😌	-10.8467
▁🌩️	-10.847
▁fluture	-10.8472
📚💡	-10.8474
🌲🍃	-10.8475
▁🎨💻	-10.8478
▁obţine	-10.8479
▁🇯🇵🌸	-10.8479
▁obiceiuri	-10.8487
💼💼	-10.8492
▁împărtăş	-10.8494
▁tau	-10.8494
▁pozitivitatea	-10.8496
▁logic	-10.8498
▁z	-10.8498
▁sănătatea	-10.851
▁Cum	-10.8513
▁culorilor	-10.8513
▁Mai	-10.852
tech	-10.8531
▁🧑	-10.8534
▁🚚	-10.8537
▁Danseaz	-10.8541
iene	-10.8544
▁opr	-10.8552
🖼️✨	-10.8561
▁vindec	-10.8564
▁on	-10.8567
🏆💪	-10.8569
▁monument	-10.8571
▁izbucni	-10.8588
▁🥐	-10.8589
▁atingă	-10.859
🏄‍♀️🌊	-10.8597
com	-10.8608
▁Cr	-10.8637
th	-10.8638
🌬️😌	-10.8645
▁🏛️🖼️	-10.8646
💡🔌	-10.865
💪😅	-10.8654
▁ghemuire	-10.8661
▁scufundat	-10.8662
▁Alătur	-10.8666
🌈😌	-10.8667
▁uscătorul	-10.8669
▁dinti	-10.8678
▁no	-10.8679
▁acoperite	-10.8686
💪💼	-10.8687
▁divers	-10.8692
💪😃	-10.8692
👭👬	-10.8697
▁🏺	-10.8706
▁☀️👗	-10.8708
✨🤩	-10.8708
▁lut	-10.8717
gu	-10.8718
▁împărtăşit	-10.8721
rată	-10.8723
🌼🌸	-10.8723
▁sportiv	-10.8726
💫💥	-10.8727
▁na	-10.873
▁tu	-10.8731
✨😋	-10.8748
🤗💕	-10.8756
▁🌅🏖️	-10.8761
🍃🌸	-10.8761
💪😍	-10.8777
▁grădinii	-10.8782
aje	-10.8784
▁Fe	-10.8784
🌞💦	-10.879
▁lucra	-10.8793
▁Be	-10.8794
▁far	-10.8797
▁🧶	-10.8805
🔥👌	-10.8812
ana	-10.8814
▁Rochii	-10.8835
▁gestiona	-10.8836
🎨🖼️	-10.8837
▁⚽🥅	-10.8838
🏖️🌅	-10.8851
💖😍	-10.8857
▁zborul	-10.8864
▁Găsi	-10.8866
▁hoinăr	-10.8873
▁🤣	-10.8876
▁expresi	-10.888
ard	-10.8881
🦋✨	-10.8887
▁recent	-10.8915
▁vorbi	-10.8919
🐔	-10.8919
▁rola	-10.892
🌷🌻	-10.892
▁promovare	-10.8946
zz	-10.8947
▁plajei	-10.8953
🌞🎉	-10.8953
po	-10.8973
👩‍🏫💡	-10.8978
🌳☀️	-10.8981
🍽️🎨	-10.8983
▁pensul	-10.8984
🌈🏞️	-10.8987
▁ascuns	-10.8991
▁impecabil	-10.8996
▁ecologic	-10.8997
▁electrizant	-10.8999
▁amuzant	-10.9003
▁rural	-10.9003
▁popular	-10.9006
💪🔧	-10.9007
▁floral	-10.9012
▁petrecerea	-10.9012
▁menţine	-10.9018
▁parfumat	-10.9019
ming	-10.902
▁💡	-10.902
▁🏞️🌳	-10.9024
▁simplitate	-10.903
▁povesti	-10.9031
🏔️❄️	-10.9039
🇺🇸	-10.9041
🛴	-10.9041
🧔	-10.9041
▁curiozitate	-10.9046
💼🌟	-10.9049
🦊	-10.9049
▁urc	-10.905
😎💪	-10.905
▁🎨🖼️	-10.9052
▁aburi	-10.9052
🌲🌳🌿	-10.907
💥😱	-10.9072
▁evad	-10.9072
▁compani	-10.9075
▁regi	-10.9075
arele	-10.9075
▁ploi	-10.9079
▁fraţi	-10.908
▁👑	-10.9081
▁☀️🌻	-10.9083
▁practica	-10.9086
▁revigor	-10.9087
▁gastronomic	-10.9088
▁gard	-10.9097
😍👌	-10.91
💭💡	-10.9106
ntrenamentul	-10.9107
▁ceramic	-10.9108
▁etaj	-10.9109
▁suplimentar	-10.9109
▁enervant	-10.911
▁🍰	-10.9125
🔽	-10.9126
💼🚀	-10.9127
🖼️💥	-10.913
▁Maiestuo	-10.9142
▁univers	-10.9143
▁pan	-10.9145
▁🇧🇷💃	-10.9152
▁regal	-10.9158
▁dezamăg	-10.9159
▁Exerci	-10.9161
🎶🎉	-10.9165
▁alerga	-10.9167
💆‍♀️💤	-10.9168
▁clar	-10.9168
❄️😌	-10.9175
2	-10.9178
▁direcţi	-10.9179
▁eşarf	-10.9183
▁👨‍🍳🍽️	-10.9184
💉💊	-10.9184
☀️💛	-10.9185
▁acoperiș	-10.9188
▁consol	-10.9193
🤽‍♀️	-10.9195
limbându	-10.9196
clusiv	-10.9196
👰	-10.9196
🐵	-10.9196
⛑️	-10.9197
🇨🇳	-10.9197
😣	-10.9197
🪒	-10.9197
▁sclip	-10.9197
⛲	-10.9197
👹	-10.9197
🔖	-10.9197
🕛	-10.9197
🥨	-10.9197
🥴	-10.9197
🫂	-10.9197
goals	-10.9197
▁Atenție	-10.9197
▁Egipt	-10.9197
▁Indulcind	-10.9197
▁Veveriţ	-10.9197
▁altcineva	-10.9197
▁autostrada	-10.9197
▁boho	-10.9197
▁cactus	-10.9197
▁colibri	-10.9197
▁consum	-10.9197
▁dovleac	-10.9197
▁experienta	-10.9197
▁fierăstrău	-10.9197
▁gadget	-10.9197
▁hibrid	-10.9197
▁instantanee	-10.9197
▁jeep	-10.9197
▁jungla	-10.9197
▁limită	-10.9197
▁maestru	-10.9197
▁mişto	-10.9197
▁patiserie	-10.9197
▁primăverii	-10.9197
▁prospeţime	-10.9197
▁râzând	-10.9197
▁salopet	-10.9197
▁senzorial	-10.9197
▁summit	-10.9197
▁surpriză	-10.9197
▁tovarăşi	-10.9197
▁trotuar	-10.9197
▁tăcere	-10.9197
▁viziune	-10.9197
▁zahăr	-10.9197
▁zumzet	-10.9197
▁înţelepţi	-10.9197
⚱️	-10.9197
➿	-10.9197
🐈	-10.9197
🥔	-10.9197
▁Clasic	-10.9197
▁Picături	-10.9197
▁exaltare	-10.9197
▁rosii	-10.9197
▁viteze	-10.9197
🌛	-10.9197
🕑	-10.9197
🥫	-10.9197
🧨	-10.9197
▁Templ	-10.9197
▁anumit	-10.9197
▁merite	-10.9197
👩‍🦰	-10.9197
🦞	-10.9197
▁Învăţ	-10.9197
🍆	-10.9197
▁celălalt	-10.9197
▁Volei	-10.9197
▁Carier	-10.9197
▁coadă	-10.9197
▁pistă	-10.9197
▁vanilie	-10.9197
▁ventilator	-10.9197
▁atletism	-10.9197
▁activități	-10.9197
▁evident	-10.9197
▁Toaster	-10.9197
👨‍👩‍👦‍👦	-10.9197
▁adaptat	-10.9197
▁frică	-10.9197
▁aventuroase	-10.9197
▁înălţător	-10.9197
▁politice	-10.9197
▁temerile	-10.9197
▁mentinere	-10.9197
▁Dezlănțui	-10.9197
▁măsor	-10.9197
▁floricele	-10.9197
▁spațios	-10.9197
▁toast	-10.9197
▁Thailand	-10.9197
▁creativităţii	-10.9197
▁strălucească	-10.9198
▁Lupt	-10.9198
▁hotel	-10.9198
▁Lupi	-10.9198
▁ospă	-10.9198
▁Camping	-10.9198
▁Bună	-10.9198
▁interviu	-10.9198
▁laser	-10.9198
🏼‍♂️	-10.9199
▁portret	-10.9199
▁amintire	-10.9199
▁copleşitoare	-10.9199
▁trus	-10.9199
▁crucial	-10.9199
▁rezultat	-10.9199
▁Tip	-10.9199
▁beneficii	-10.9199
▁dreptate	-10.9199
▁coco	-10.92
▁🥾🏔️	-10.92
▁non	-10.92
▁Ince	-10.92
arah	-10.9201
▁reîmprospătat	-10.9201
▁copleșitor	-10.9202
▁buton	-10.9202
▁zâmbit	-10.9202
▁Dezvoltator	-10.9202
▁privesc	-10.9202
▁admiraţie	-10.9203
▁călătoresc	-10.9203
▁Bine	-10.9203
▁slăbănogi	-10.9204
▁muzeului	-10.9204
▁depozit	-10.9204
▁sincronizat	-10.9205
🚶🏻‍♀️	-10.9205
▁oras	-10.9206
▁încurajează	-10.9206
👨‍⚕️👩‍⚕️	-10.9207
▁campionat	-10.9207
▁umanitate	-10.9208
▁fiinţe	-10.9209
▁curățare	-10.921
ţiuni	-10.921
▁cremoase	-10.9211
▁imprimare	-10.9211
▁generaţiilor	-10.9213
▁Maiestuoas	-10.9213
▁haosului	-10.9213
▁îmbrăţişându	-10.9214
▁puritatea	-10.9214
▁organizat	-10.9214
▁lentilă	-10.9215
▁atent	-10.9216
▁Copleşit	-10.9216
🖤👗	-10.9216
👨‍🚀	-10.9216
▁binecuvântările	-10.9217
▁acoperă	-10.9218
▁câmpii	-10.9219
▁bru	-10.9219
ness	-10.9219
▁profesie	-10.9219
▁Urşi	-10.9219
▁glumă	-10.922
▁Sh	-10.922
▁Mame	-10.9221
▁îmbrățișări	-10.9222
▁lână	-10.9222
▁Deveni	-10.9222
▁înfășurat	-10.9222
▁clipă	-10.9225
▁înceţoşată	-10.9225
▁nelimitat	-10.9227
▁dedicare	-10.923
▁greutate	-10.9231
▁🐅	-10.9232
▁față	-10.9232
💕🌸	-10.9233
▁Înce	-10.9235
▁necesare	-10.9238
▁distreze	-10.9238
▁complexitate	-10.9239
▁cabluri	-10.924
🩺❤️	-10.9241
▁drăgălăşeniei	-10.9244
💡🚀	-10.9245
▁ascuţite	-10.9246
▁preia	-10.9247
😍💕	-10.9248
▁contribui	-10.925
▁carnavaluri	-10.9253
🍔🌭	-10.9254
▁aventurieri	-10.9255
▁aurie	-10.9256
▁🍪🍫	-10.9257
▁diversitatea	-10.926
▁pașnică	-10.926
💥🎨	-10.9262
mod	-10.9263
▁simţea	-10.9264
▁Ferigi	-10.9264
▁curry	-10.9267
▁grad	-10.927
▁nesfârșită	-10.9272
▁mângâiere	-10.9272
▁vânătoare	-10.9273
▁suc	-10.9274
▁habitate	-10.9275
▁simţuri	-10.9275
▁💃✨	-10.9276
🌿💦	-10.9277
▁Cap	-10.9281
▁intensitatea	-10.9282
▁supe	-10.9283
▁rund	-10.9283
▁ecologice	-10.9283
💪🏅	-10.9286
▁cântece	-10.929
▁uitați	-10.9291
▁talentat	-10.9292
▁inovaţiei	-10.9293
👚👖	-10.9296
▁membri	-10.9297
▁demn	-10.9297
😮😍	-10.9299
▁subacvatice	-10.9301
🌈💥	-10.9302
▁Biciclete	-10.9304
▁personalitate	-10.9305
▁Da	-10.9307
▁explorează	-10.9309
▁întâlniri	-10.931
▁contemporane	-10.9311
💭💫	-10.9313
▁forţa	-10.9317
▁🍕🧀	-10.9318
▁neaşteptată	-10.9318
🌻🌼	-10.932
▁cor	-10.9322
▁plan	-10.9323
ins	-10.9324
▁bată	-10.9326
▁următorul	-10.9328
ității	-10.9329
▁economis	-10.9332
der	-10.9333
▁bile	-10.9335
▁miere	-10.9337
▁🚶	-10.9339
👦🏻	-10.9348
▁🕰️	-10.9349
▁imaginație	-10.935
▁înflorind	-10.9352
🙏😌	-10.9356
▁uscate	-10.9356
▁🏜️	-10.9357
▁parfumuri	-10.9358
out	-10.9358
🏔️🌄	-10.9361
✨💕	-10.9369
știe	-10.937
▁🎲	-10.9371
✨🏞️	-10.9371
💨💥	-10.9375
▁pozitive	-10.9375
▁Mon	-10.9376
😌🌿	-10.9376
▁Moda	-10.9383
▁succesul	-10.9387
▁durabilă	-10.939
▁🏙	-10.9391
▁🍔🍟	-10.9391
▁apune	-10.9394
✨💎	-10.9394
▁săli	-10.9397
tratează	-10.9397
▁alimentare	-10.94
😢❤️	-10.9404
▁supra	-10.9406
🎨💥	-10.9407
nţă	-10.941
▁ra	-10.9413
🏝️🌊	-10.9413
▁💇‍♀️	-10.942
▁realitatea	-10.9421
▁admirat	-10.9421
▁🔊	-10.9423
▁pozitivă	-10.9424
▁înflorit	-10.9431
▁Ar	-10.9432
▁frustrare	-10.9439
▁🍽️🌶️	-10.944
▁antrenamentul	-10.944
boară	-10.9442
▁explorate	-10.9449
mate	-10.945
▁sculpturile	-10.9452
▁bucurat	-10.9453
▁🌹❤️	-10.9454
▁Întâlnire	-10.9458
▁futuriste	-10.9459
▁🏨	-10.946
💃🎵	-10.9464
ific	-10.9466
▁🧰	-10.9467
▁captivat	-10.9468
▁forţă	-10.9472
aza	-10.9475
👌💯	-10.9482
👀💥	-10.9483
▁🔄	-10.9488
❤️🙌	-10.9493
▁aromat	-10.9502
🔥🔝	-10.9505
▁serile	-10.9517
▁armat	-10.9521
▁Ultim	-10.9521
▁🌅😍	-10.9523
🌸💕	-10.9525
👖💃	-10.9527
eaza	-10.9528
✨🔍	-10.9535
▁🍣🥢	-10.9537
▁dezvolt	-10.9538
▁concepte	-10.9542
✈️🌴	-10.9546
▁👔	-10.9546
🌃🏢	-10.9549
🎶🌟	-10.9555
▁pâinea	-10.9565
💼💪	-10.9567
▁🩳	-10.9589
▁aburit	-10.959
▁specială	-10.9593
💡🌟	-10.9593
▁aspiratorul	-10.9594
▁gre	-10.9597
🏠🔥	-10.9604
▁adăugare	-10.9606
▁sălbăticiei	-10.9607
▁😴💤	-10.9616
▁🎸	-10.9619
▁🏞️🚶‍♀️	-10.962
▁ecosistemul	-10.9621
▁zâmbetul	-10.9622
▁🌸🌺	-10.9629
▁interpret	-10.9632
▁sportivi	-10.9635
🏃‍♂️🏃‍♀️	-10.9649
🌻✨	-10.9652
▁pomp	-10.9656
cing	-10.9656
👩‍👦	-10.9661
▁vorb	-10.9664
▁🎉💃	-10.9665
▁cursa	-10.9666
▁🇯🇵🏯	-10.9667
▁🤗💕	-10.9671
▁🎨🎨	-10.9672
abilă	-10.9676
🤝💪	-10.9677
▁aranj	-10.968
▁obosit	-10.9681
▁💗	-10.9687
▁ceas	-10.9691
🌟💖	-10.9693
▁Urmări	-10.9695
😮✨	-10.9699
▁inteligentă	-10.9699
▁iubite	-10.9705
🌍💫	-10.9705
▁clasica	-10.9706
🌟🙌	-10.9715
👌😋	-10.9717
🍃😌	-10.9719
🌊✨	-10.9726
🧘‍♀️💆‍♀️	-10.9734
▁🍨	-10.9741
🏖️🌞	-10.9752
🌲⛰️	-10.9752
▁degetul	-10.9755
💯🙌	-10.9764
👨‍	-10.9768
💕😌	-10.9771
nat	-10.9773
🌬️🍂	-10.9779
🖌️🖼️	-10.9781
🎭🌟	-10.9782
▁bal	-10.9785
🌈💫	-10.9788
▁emisiun	-10.979
▁tehnic	-10.9796
▁🏰✨	-10.9803
▁🏘️	-10.9805
imineţile	-10.9808
✨🏰	-10.9822
▁concertul	-10.9825
▁Spi	-10.9828
▁înţelege	-10.9833
🌈💃	-10.9837
▁☀️🌴	-10.9849
▁sentimentele	-10.9857
⚡💥	-10.9859
▁💭	-10.9862
▁propriil	-10.9869
vor	-10.9887
🎨✏️	-10.9889
▁reper	-10.9892
▁continu	-10.9895
🚀💥	-10.9896
▁🕵️‍♀️	-10.9897
😋🤤	-10.9899
🎉😍	-10.991
▁glori	-10.9914
▁campion	-10.9925
👀👌	-10.9931
▁câștiga	-10.9935
👩‍🎓	-10.9937
▁luminat	-10.9938
▁doare	-10.9942
▁catedral	-10.9946
▁aud	-10.9957
cena	-10.9962
talii	-10.9964
💛🌻	-10.9971
🌸💖	-10.9981
🎨🌟	-10.9989
▁👣	-10.9994
▁îmbunătățire	-11.0003
🌿❤️	-11.0003
▁versatilitate	-11.0004
🔥🌡️	-11.0007
▁atârn	-11.0008
🌞👙	-11.001
▁🧣	-11.001
🌿😍	-11.0019
▁🌊🏖️	-11.0019
🌸🌷	-11.0019
😊❤️	-11.0024
▁Cre	-11.0024
💪⚡	-11.0024
the	-11.0025
🚀✨	-11.0028
▁😢	-11.0054
▁🦜	-11.0066
▁manifest	-11.0069
💦🌊	-11.0069
▁🩺	-11.0078
▁gl	-11.0084
▁afiş	-11.0085
▁transportat	-11.0086
▁fulgerul	-11.0088
▁🐘🌿	-11.0091
▁parul	-11.0092
▁atrag	-11.0093
▁secret	-11.0095
❤️💕	-11.0101
color	-11.0102
▁răsfăţa	-11.0103
▁satisfac	-11.0105
▁orizont	-11.0106
▁romantic	-11.0114
▁emoţional	-11.0114
👪❤️	-11.0115
clare	-11.0116
▁palmier	-11.0116
🌍🌈	-11.0116
▁digital	-11.0119
💊💉	-11.012
▁Asculta	-11.0121
▁palat	-11.0125
🎶✨	-11.0132
▁spatiu	-11.014
🐺	-11.0148
💕😊	-11.0148
💨🍃	-11.0149
👨‍👩‍👧‍👧	-11.0153
Vibes	-11.0157
▁🏋️‍♀️💪	-11.016
✨📚	-11.0167
▁⌛	-11.0167
▁menţin	-11.0169
❄️🥶	-11.0177
▁cro	-11.0184
🕺🎉	-11.0187
▁îndrăgosti	-11.0187
▁mir	-11.019
🏍️💨	-11.019
▁🎨🏢	-11.0196
▁real	-11.0198
▁ieftin	-11.0202
▁piscin	-11.0204
▁emoţionat	-11.0213
▁avansat	-11.0213
▁Suculent	-11.0215
utobuz	-11.0215
🔧🔩	-11.0216
▁productiv	-11.022
vocado	-11.0221
▁trimit	-11.0221
▁Hai	-11.0225
🛣️💨	-11.0229
☀️😊	-11.023
▁pijama	-11.0234
▁reparaţii	-11.0235
▁ritmic	-11.0238
▁papile	-11.0238
▁cunosc	-11.0244
▁spal	-11.0245
▁flip	-11.0248
nți	-11.0252
▁scufun	-11.0255
▁dansa	-11.0258
▁cablu	-11.026
▁arhitectural	-11.0261
▁veri	-11.0263
stica	-11.027
▁durere	-11.0273
▁simțuri	-11.0274
▁oportunită	-11.0276
💚✨	-11.0282
🤗💖	-11.0282
▁Van	-11.0285
▁indivizi	-11.0288
🏼‍♀️	-11.0294
▁bici	-11.0294
▁perseverenţ	-11.0296
▁întuneric	-11.0301
😎💨	-11.0301
⛰	-11.0303
🕶	-11.0303
🛣	-11.0303
ezonul	-11.0304
▁snowboard	-11.0304
▁Nepo	-11.0305
▁retrag	-11.0306
▁îndepărt	-11.0306
🍡	-11.0306
🍒	-11.0307
▁arhitect	-11.0307
Fashion	-11.0307
👩‍👧‍👧	-11.0307
😝	-11.0307
🚣	-11.0307
😥	-11.0307
🚕	-11.0307
▁vrăj	-11.0308
🟠	-11.0308
🥡	-11.0308
▁estomp	-11.0308
🌓	-11.0308
Winter	-11.0308
⏩	-11.0308
▁Câmpuri	-11.0308
▁aplauze	-11.0308
▁performanţe	-11.0308
▁pumn	-11.0308
🍏	-11.0308
🤡	-11.0308
🧧	-11.0308
🪔	-11.0308
▁Admir	-11.0308
▁Amintiri	-11.0308
▁Deblochează	-11.0308
▁Mahal	-11.0308
▁Planifica	-11.0308
▁Thunder	-11.0308
▁York	-11.0308
▁abundenţ	-11.0308
▁accent	-11.0308
▁acțiune	-11.0308
▁adidaşi	-11.0308
▁albastră	-11.0308
▁ascund	-11.0308
▁bibliotecă	-11.0308
▁biseric	-11.0308
▁bulgăr	-11.0308
▁capitol	-11.0308
▁carbon	-11.0308
▁compliment	-11.0308
▁consistent	-11.0308
▁flamenco	-11.0308
▁furtunos	-11.0308
▁grămad	-11.0308
▁hotărât	-11.0308
▁iasomie	-11.0308
▁incomplet	-11.0308
▁influenţ	-11.0308
▁junglă	-11.0308
▁koala	-11.0308
▁limbi	-11.0308
▁minimalist	-11.0308
▁muşchi	-11.0308
▁nicăieri	-11.0308
▁pasionați	-11.0308
▁permițând	-11.0308
▁privilegiu	-11.0308
▁robinet	-11.0308
▁răcească	-11.0308
▁răsfață	-11.0308
▁răsucire	-11.0308
▁sfarsit	-11.0308
▁slujbă	-11.0308
▁tânăr	-11.0308
▁voastră	-11.0308
▁vârtej	-11.0308
▁Îngheţat	-11.0308
▁îndrăzneaţă	-11.0308
▁întreprinderi	-11.0308
🏳️‍🌈	-11.0308
👽	-11.0308
💂	-11.0308
🕐	-11.0308
🙁	-11.0308
🤐	-11.0308
🦖	-11.0308
🫔	-11.0308
▁celuilalt	-11.0308
▁dispar	-11.0308
▁maeştri	-11.0308
▁sărbătoare	-11.0308
🐊	-11.0308
🐥	-11.0308
👱‍♀️	-11.0308
📄	-11.0308
😠	-11.0308
🤑	-11.0308
🤬	-11.0308
🧑‍💻	-11.0308
▁lucioase	-11.0308
▁touchdown	-11.0308
▁tovarăși	-11.0308
▁Economisi	-11.0308
▁joase	-11.0308
▁picătură	-11.0308
▁siluet	-11.0308
▁usoara	-11.0308
▁drumeţie	-11.0308
▁rebeliune	-11.0308
▁profesional	-11.0308
▁detaliu	-11.0308
▁bezele	-11.0308
▁capodopera	-11.0308
▁individual	-11.0308
▁legende	-11.0308
▁curioase	-11.0308
▁mătase	-11.0308
▁capricioase	-11.0308
▁curgătoare	-11.0308
▁fluid	-11.0308
▁îndrăgosteşti	-11.0308
🗑️	-11.0308
▁sandviş	-11.0308
▁cărți	-11.0308
🧙‍♂️	-11.0308
▁angajament	-11.0308
▁bonsai	-11.0308
▁relaxării	-11.0308
▁coaptă	-11.0308
▁acţiune	-11.0308
▁cheesy	-11.0308
▁🌮🌮🌮	-11.0308
▁Gogh	-11.0308
▁gros	-11.0308
🗡️	-11.0308
▁ninsoare	-11.0308
▁Salutaţi	-11.0308
▁râului	-11.0308
▁cantitate	-11.0309
🕵️	-11.0309
💆🏼‍♀️	-11.0309
▁inovaţii	-11.0309
▁prăbuşesc	-11.0309
▁snorkeling	-11.0309
▁sudoare	-11.0309
▁eliberează	-11.0309
▁rostogoleşte	-11.0309
▁obositoare	-11.0309
treacă	-11.0309
▁umbrela	-11.0309
▁Relaxare	-11.0309
▁presu	-11.0309
▁turişti	-11.0309
▁Vech	-11.031
▁nerăbdare	-11.031
▁duș	-11.031
▁muşt	-11.031
▁mobila	-11.031
▁supererou	-11.031
▁palet	-11.031
▁servici	-11.031
▁skateboarding	-11.0311
▁👵🍪	-11.0311
▁balon	-11.0311
▁răutăcios	-11.0311
▁linişteşte	-11.0312
▁zâmbind	-11.0312
▁Îmbrățișați	-11.0312
▁pompat	-11.0312
👉🏼	-11.0312
▁încălzesc	-11.0313
▁awe	-11.0313
▁🔋	-11.0313
▁patine	-11.0313
▁iluminat	-11.0313
👋🏼	-11.0313
▁lovitura	-11.0314
▁vidre	-11.0314
▁permiţându	-11.0315
mobil	-11.0315
▁marmură	-11.0315
▁garantează	-11.0315
▁servesc	-11.0315
▁dezvoltarea	-11.0315
▁vrei	-11.0316
▁camionet	-11.0316
▁pick	-11.0316
▁crustă	-11.0316
▁Purta	-11.0317
▁închiria	-11.0317
▁voci	-11.0318
▁Lace	-11.0318
▁ajutându	-11.0319
▁strălucind	-11.0319
anii	-11.032
▁tăcut	-11.032
▁mobilierului	-11.032
▁bucatarie	-11.0321
▁stricat	-11.0321
▁căutând	-11.0321
▁marină	-11.0321
▁climat	-11.0322
▁euforic	-11.0322
▁naţionale	-11.0323
▁Reg	-11.0323
▁tangibile	-11.0323
▁şurubul	-11.0324
▁uimiţi	-11.0324
▁loveşte	-11.0324
▁caldura	-11.0325
▁reuniun	-11.0325
▁👗✨	-11.0326
▁lipi	-11.0326
▁ceaţa	-11.0327
▁topeşte	-11.0327
▁Micuţ	-11.0329
▁estetic	-11.033
lip	-11.0331
🔍🌟	-11.0331
▁Înconjurat	-11.0332
▁pictează	-11.0333
▁Visez	-11.0333
▁prime	-11.0333
▁generaţii	-11.0335
💫🤩	-11.0335
▁personalităţi	-11.0335
▁cuțit	-11.0335
▁Vărul	-11.0336
▁racheta	-11.0338
▁veneraţia	-11.0338
▁dedicat	-11.034
▁bruscă	-11.034
▁răcire	-11.034
pand	-11.0341
▁🏰🌳	-11.0342
▁Sper	-11.0342
▁Excursie	-11.0343
▁murdare	-11.0343
▁strâmte	-11.0343
▁vizitatorilor	-11.0343
▁curăţă	-11.0346
▁contemplare	-11.0349
▁apreciez	-11.0349
man	-11.0349
▁splendide	-11.035
▁cofeină	-11.0353
🌨️🌬️	-11.0353
▁pregătiți	-11.0353
▁uriaşe	-11.0354
▁🥾🌲	-11.0354
▁🍫🍰	-11.0356
▁dieta	-11.0357
▁orașelor	-11.0358
▁emotii	-11.0359
▁marketing	-11.0362
▁plimbat	-11.0367
▁uriaşi	-11.0373
▁👪	-11.0374
🚀💡	-11.0376
▁trezeşte	-11.0378
▁întreb	-11.0379
▁lucrurilor	-11.038
▁somnul	-11.0382
▁🚌🛣️	-11.0385
▁vale	-11.0385
▁corpului	-11.0387
▁comunităţii	-11.0387
🎨🌌	-11.0388
▁complexă	-11.0393
▁facut	-11.0394
▁apreciată	-11.0395
▁trezi	-11.0396
▁amprenta	-11.0396
▁Canaliz	-11.0396
▁autobuz	-11.0401
🧀😋	-11.0402
🌴🌺	-11.0402
▁gândurile	-11.0404
▁amuzante	-11.0405
▁harul	-11.0405
▁but	-11.0407
▁🇹🇭	-11.0407
▁învățare	-11.0412
▁🌻🌞🌼	-11.0414
🌟🙏	-11.0416
▁relaxaţi	-11.0417
▁emoţională	-11.0418
▁apar	-11.0423
▁ace	-11.0429
▁gustările	-11.043
▁gastronomică	-11.0431
▁pensulă	-11.0432
▁vânturi	-11.0432
▁parfumată	-11.0434
😍🌞	-11.0434
▁Momente	-11.0439
▁aromată	-11.0443
👑🏰	-11.0443
▁deserturi	-11.0444
▁rustică	-11.0445
👥❤️	-11.0446
▁plăcerea	-11.0449
moţionat	-11.0451
😌🌞	-11.0454
▁🏖️☀️	-11.046
▁Vibes	-11.0461
▁indici	-11.0462
▁creaţii	-11.0465
🧰💪	-11.0465
▁piaţ	-11.0466
▁esenţiale	-11.0467
▁exerciţiul	-11.0472
▁câştiga	-11.0474
▁magazine	-11.0479
▁drumurile	-11.0479
🔥👖	-11.0479
▁prăjite	-11.0487
▁cântec	-11.0488
▁🌾	-11.0491
pera	-11.0493
▁capsule	-11.0495
▁🦒	-11.0495
▁curiozitatea	-11.0497
▁simplitatea	-11.0498
▁spectacolul	-11.0498
▁👩‍❤️‍👩	-11.0499
Te	-11.0502
▁capac	-11.0507
▁formelor	-11.0507
▁🦩	-11.0514
▁gotice	-11.0517
▁jucat	-11.0521
🥰💕	-11.0524
👵❤️	-11.0525
▁🍽	-11.0527
▁săptămânii	-11.0532
😊🌟	-11.0534
🪚🌳	-11.0537
▁💁‍♀️	-11.0538
▁🚶‍♂️	-11.0539
▁numit	-11.0543
💨🌪️	-11.0545
🎉🎈	-11.0555
💦🌿	-11.0564
▁începutul	-11.0565
şuril	-11.0565
▁maşinii	-11.0566
▁petrecerii	-11.0568
▁ochiul	-11.0568
▁insule	-11.057
💪🌪️	-11.0571
stin	-11.0586
▁poveştilor	-11.0596
▁aromelor	-11.0596
▁practici	-11.06
🔥🎨	-11.0601
▁⛸️	-11.0601
▁mondială	-11.0601
▁🐝🌸	-11.0601
▁secretele	-11.0603
▁epică	-11.0604
▁Acea	-11.0605
▁☀️🌸	-11.0606
💪🚀	-11.0608
🌇🏙️	-11.0611
🌷🌸	-11.0615
▁🏗️	-11.062
▁spori	-11.0621
👨‍🎤	-11.0627
▁urmărire	-11.063
👖👕	-11.0632
🎉🏆	-11.0634
▁simţiţi	-11.0639
▁🌧	-11.0639
ană	-11.0643
▁jucăușă	-11.0644
▁nevoia	-11.0644
▁spala	-11.0646
▁mall	-11.066
▁emoțiile	-11.0665
▁Grădin	-11.0668
ene	-11.0685
👌🔥	-11.0685
📺🍿	-11.0691
🌺💐	-11.0692
▁🐿️	-11.0695
🙌💯	-11.07
▁🏖	-11.0708
▁ciripit	-11.071
▁cont	-11.0715
▁partenerul	-11.0716
▁❄️☃️	-11.0719
▁👩‍⚕️❤️	-11.0721
▁Striga	-11.0721
▁programe	-11.0723
▁creatur	-11.0741
▁Tat	-11.0758
▁nectar	-11.0768
😄✨	-11.0771
▁economiseşt	-11.0771
▁🩰	-11.0781
▁🗣️	-11.0782
▁oceanul	-11.0782
▁🏞️🌲	-11.0784
😍💫	-11.0788
💨🌳	-11.0788
✈️🌍	-11.0804
bile	-11.0805
🌊🏝️	-11.0811
📚❤️	-11.0814
🌊🐚	-11.0815
💡🎨	-11.0819
☃️❄️	-11.0819
💦🌧️	-11.0823
‍♀️	-11.0824
🐶🐱	-11.083
▁amestecând	-11.0832
🔨💪	-11.0836
🍣🍜	-11.0838
📚🕰️	-11.0839
▁👗🎨	-11.0841
▁alergi	-11.085
▁aduna	-11.0854
▁🍣😍	-11.0857
▁descoper	-11.0862
resc	-11.0875
▁🦋🌸	-11.0875
▁🤸‍♂️	-11.0882
▁☔💦	-11.0884
▁golul	-11.0886
▁ecou	-11.0889
gan	-11.0892
▁doi	-11.0898
▁🗓️	-11.0902
anda	-11.091
ero	-11.091
▁🌵💦	-11.0922
▁🏢🌆	-11.0923
▁😀	-11.0924
👀💫	-11.0931
🙌🎉	-11.0932
iuni	-11.0935
▁termina	-11.0936
▁Iubind	-11.0938
▁🥩	-11.0944
▁străini	-11.0947
▁adorabilă	-11.0952
😃✨	-11.0953
▁colțuri	-11.0959
ime	-11.0964
▁crem	-11.0968
▁trezes	-11.0979
▁🚫	-11.0979
🌸💆‍♀️	-11.0982
📚🔍	-11.0982
▁construind	-11.0983
▁creator	-11.0985
🛌💤	-11.0986
▁televizor	-11.0992
💃👗	-11.0992
💡⚡	-11.0993
▁înflori	-11.0995
icuri	-11.1003
▁tradiţi	-11.1013
🌺🌻	-11.1013
▁vinuri	-11.1019
▁libere	-11.1026
👥💭	-11.1041
🍃💚	-11.1043
știi	-11.1057
👨‍💼💼	-11.1058
ordo	-11.1065
🌿🌲	-11.1069
▁ascultând	-11.1071
▁🍕🧀🍅	-11.1077
▁trăind	-11.108
😎✨	-11.1084
▁🌻🌞🌻	-11.1087
▁😊❤️	-11.1113
men	-11.1117
🤩🎉	-11.1138
▁învesel	-11.1156
🌶️🥘	-11.1161
💨😱	-11.1169
▁sufla	-11.1175
▁🥦	-11.1177
▁spin	-11.118
▁energiz	-11.1181
🌴🌴	-11.1184
▁răspând	-11.119
✨🏡	-11.1192
💐✨	-11.1192
▁Sărbători	-11.1193
▁Rev	-11.1204
🔥⚡	-11.1205
🔥🚀	-11.1217
hop	-11.1219
▁Vorbi	-11.1219
▁Șurubelniț	-11.1235
▁gând	-11.1236
▁salvare	-11.1243
▁îndeplini	-11.1243
🌞😎	-11.1246
rut	-11.1249
▁dansat	-11.125
▁🌅🏖️🌊	-11.1252
▁familiale	-11.1258
🌷🌼	-11.1262
▁rezistent	-11.1263
▁imp	-11.1271
▁cerc	-11.1274
▁Mic	-11.1282
❤️👪	-11.1284
👭💕	-11.1286
▁🐠	-11.1292
▁limpez	-11.1299
▁acoperiş	-11.1303
▁grădinăritul	-11.1309
🌸🌺🌼	-11.131
▁Imagin	-11.1318
🌿🌄	-11.1319
🌟🤩	-11.132
💎✨	-11.1322
▁lun	-11.1327
▁chei	-11.1328
💪👊	-11.1342
☕😌	-11.1344
▁mas	-11.1347
vent	-11.135
U	-11.1352
▁masiv	-11.1358
▁chip	-11.1361
▁neted	-11.1364
🏰💫	-11.1364
💰💼	-11.1365
▁stiluri	-11.1369
🌼🌈	-11.1376
▁dansez	-11.1377
umb	-11.1381
▁🪴	-11.1381
▁proaspat	-11.1386
▁dimensiune	-11.1388
▁linistit	-11.1388
mpresionismul	-11.139
🦇	-11.14
▁modernitate	-11.14
ls	-11.1403
👨‍👧	-11.1404
🌻🌻🌻	-11.1405
🍃❤️	-11.1407
exprimare	-11.1409
🦉	-11.1411
▁material	-11.1411
▁pod	-11.1415
📖☕	-11.1416
▁mistic	-11.1416
😍🌸	-11.1417
🏁🏆	-11.1418
🍿🎥	-11.142
▁🎆	-11.1423
🍃🌳	-11.1428
⛄❄️	-11.143
▁🏙️✨	-11.1431
▁🌴🌊	-11.1432
▁părinţi	-11.1436
▁iubeşt	-11.1436
▁inovaţie	-11.1438
▁🎨🌆	-11.1438
🤩👌	-11.1443
▁etern	-11.1445
▁levănţic	-11.1445
▁elveţian	-11.1446
▁ecrane	-11.1446
▁necondiţionat	-11.1452
▁🇪🇸	-11.1455
▁superb	-11.1457
▁mângâie	-11.1464
▁catifelat	-11.1468
▁nocturn	-11.1471
▁energetic	-11.1471
▁ocazional	-11.1471
🌀✨	-11.1471
▁idilic	-11.1472
▁pasional	-11.1472
▁deschid	-11.1474
▁distinctiv	-11.1476
▁apropiat	-11.148
👴👵	-11.1485
🌈🌞	-11.1487
▁personaje	-11.1488
▁experimentez	-11.1488
▁vizita	-11.1489
▁utiliz	-11.1489
▁prăjitur	-11.1489
🎉👏	-11.149
▁vân	-11.1493
▁romantism	-11.1494
🔥🍫	-11.1497
▁curg	-11.15
▁Fotbal	-11.1506
▁limbaj	-11.1506
▁delfini	-11.151
🛌😴	-11.1511
▁plimbar	-11.1515
▁companionul	-11.1515
▁So	-11.152
☀️😎	-11.1524
▁împodob	-11.1529
🔍✨	-11.153
zat	-11.1539
act	-11.1539
▁🔧💪	-11.1544
▁taco	-11.1548
▁liliac	-11.155
🦀	-11.1551
▁tricot	-11.1552
▁Entuzia	-11.1552
⏱	-11.1553
🖥	-11.1553
🌶	-11.1553
🏗	-11.1553
🛍	-11.1553
👨🏻‍	-11.1554
▁investi	-11.1554
▁astept	-11.1554
▁Antren	-11.1555
🧙	-11.1556
▁vibr	-11.1556
▁Cruis	-11.1556
🟡	-11.1557
▁Cât	-11.1557
5	-11.1557
🚵	-11.1557
▁extaz	-11.1557
🇰	-11.1558
🇳🇴	-11.1558
▁Gimna	-11.1558
▁Practic	-11.1558
🍑	-11.1558
💲	-11.1558
🪕	-11.1558
▁LED	-11.1558
▁MVP	-11.1558
▁bronz	-11.1558
▁oglind	-11.1558
▁piramide	-11.1558
🌜	-11.1558
🏓	-11.1558
🔤	-11.1558
😶	-11.1558
🙉	-11.1558
🚮	-11.1558
🧋	-11.1558
▁Biseric	-11.1558
▁Costum	-11.1558
▁Germania	-11.1558
▁Giraf	-11.1558
▁Golf	-11.1558
▁Kenya	-11.1558
▁Pantaloni	-11.1558
▁Râs	-11.1558
▁Wow	-11.1558
▁aprinz	-11.1558
▁apuca	-11.1558
▁breezy	-11.1558
▁cactuşi	-11.1558
▁colegi	-11.1558
▁comisioane	-11.1558
▁contagios	-11.1558
▁crashing	-11.1558
▁dedesubt	-11.1558
▁deliciozitate	-11.1558
▁dribling	-11.1558
▁drăgălaş	-11.1558
▁duminica	-11.1558
▁elaborate	-11.1558
▁eleganța	-11.1558
▁fericiţi	-11.1558
▁ferigă	-11.1558
▁foloseşt	-11.1558
▁groază	-11.1558
▁gătească	-11.1558
▁impunătoare	-11.1558
▁incantatoare	-11.1558
▁incredere	-11.1558
▁inteligenț	-11.1558
▁licărir	-11.1558
▁moștenir	-11.1558
▁neliniştit	-11.1558
▁nervoasă	-11.1558
▁numeroase	-11.1558
▁oaspeți	-11.1558
▁ocazii	-11.1558
▁pacient	-11.1558
▁pahar	-11.1558
▁pajişti	-11.1558
▁pluş	-11.1558
▁plâng	-11.1558
▁semnificativ	-11.1558
▁straniu	-11.1558
▁sufoca	-11.1558
▁supraviețui	-11.1558
▁sâmbătă	-11.1558
▁terapia	-11.1558
▁ureche	-11.1558
▁usturoi	-11.1558
▁versuri	-11.1558
▁vânzare	-11.1558
▁vârst	-11.1558
▁wellness	-11.1558
▁înfricoşător	-11.1558
▁înviorătoare	-11.1558
➗	-11.1558
🕙	-11.1558
🚅	-11.1558
🚥	-11.1558
▁Super	-11.1558
▁africană	-11.1558
▁benzi	-11.1558
▁bucăţi	-11.1558
▁gheaţa	-11.1558
▁libertăţii	-11.1558
▁sashimi	-11.1558
▁situat	-11.1558
▁îmbib	-11.1558
🎐	-11.1558
🏩	-11.1558
👨‍❤️‍👨	-11.1558
▁asteapta	-11.1558
▁planetă	-11.1558
▁Copac	-11.1558
▁atelier	-11.1558
▁ucide	-11.1558
📶	-11.1558
🤜🤛	-11.1558
▁lideri	-11.1558
▁distanţe	-11.1558
▁strazi	-11.1558
▁studenți	-11.1558
👨‍🦱	-11.1558
▁eşu	-11.1558
▁învaţă	-11.1558
▁chef	-11.1558
▁depăș	-11.1558
▁umbrelă	-11.1558
metri	-11.1558
▁bagaje	-11.1558
▁neatins	-11.1558
▁programabil	-11.1558
▁Paris	-11.1558
▁actualiz	-11.1558
▁calculator	-11.1558
▁Introduce	-11.1558
▁răsfe	-11.1558
▁sudură	-11.1558
▁înălţătoare	-11.1558
▁Pereche	-11.1558
⛹️‍♂️	-11.1558
▁capricioasă	-11.1558
▁kit	-11.1558
▁bungee	-11.1558
▁mâncând	-11.1558
▁Adorabil	-11.1558
▁sublim	-11.1558
▁fascinaţi	-11.1558
▁primăvara	-11.1558
⏭️	-11.1558
▁respirația	-11.1558
▁milioane	-11.1558
▁tuns	-11.1558
▁creativității	-11.1558
▁lotus	-11.1558
▁Alert	-11.1558
▁azur	-11.1559
▁pasăre	-11.1559
▁iarbă	-11.1559
▁hrănitoare	-11.1559
▁goale	-11.1559
▁Urcaţi	-11.1559
▁Vulp	-11.1559
▁sandwich	-11.1559
▁numere	-11.1559
▁oceanice	-11.1559
▁copleșitoare	-11.1559
▁maxilarului	-11.1559
▁🏖️🏐	-11.1559
Chill	-11.1559
▁recunoscut	-11.1559
🧚‍♂️	-11.1559
👩‍👩‍👧‍👦	-11.1559
▁aluat	-11.1559
▁preferaţi	-11.156
formând	-11.156
▁codificare	-11.156
▁respirație	-11.156
▁duş	-11.156
▁adap	-11.156
▁altora	-11.156
▁bucuros	-11.156
▁Decor	-11.156
▁impresionat	-11.1561
👫👭👬	-11.1561
▁🥞🍁	-11.1561
▁Plec	-11.1561
eggings	-11.1562
▁singurătate	-11.1562
▁mentă	-11.1562
▁deşertului	-11.1562
▁iarba	-11.1562
▁inovator	-11.1563
▁👗👠	-11.1564
▁societale	-11.1564
▁fotografiere	-11.1564
💃🏻🕺🏻	-11.1565
▁dublu	-11.1565
▁uimesc	-11.1566
▁tradițională	-11.1566
anelor	-11.1566
▁🌲🥾	-11.1566
▁musca	-11.1567
▁ospitalieri	-11.1567
▁Schi	-11.1567
▁ring	-11.1568
▁terapeutic	-11.1568
▁visător	-11.1568
▁însoţit	-11.1568
▁susţinere	-11.1568
▁🏙️🌥️	-11.1569
▁perseverență	-11.1569
▁Elveţia	-11.1569
Goal	-11.1569
▁⛰️🥾	-11.1569
▁răget	-11.157
▁sălbăticia	-11.157
▁📸⏳	-11.1571
🍅🧀	-11.1571
▁dormind	-11.1572
▁❄️❄️❄️	-11.1573
▁difuzor	-11.1573
▁eroul	-11.1573
▁excit	-11.1573
▁ramur	-11.1574
▁altfel	-11.1574
▁organizator	-11.1574
▁aglomerate	-11.1575
▁eterice	-11.1575
▁mâncă	-11.1576
ereu	-11.1576
▁iluminare	-11.1577
▁exud	-11.1578
▁bunatate	-11.1579
ărinții	-11.1579
▁rare	-11.158
▁şuruburilor	-11.1583
▁⚡🔌	-11.1584
▁venerat	-11.1584
▁Prăjitor	-11.1584
▁exemplific	-11.1585
▁bunăst	-11.1586
▁Valurile	-11.1587
▁spirituale	-11.1587
▁Mes	-11.1589
🧡💛	-11.159
💫🌿	-11.159
▁🌻😄	-11.1592
▁tunetul	-11.1592
👍🏻	-11.1593
▁dunks	-11.1593
▁colecti	-11.1593
▁concentrare	-11.1596
▁puternicul	-11.1596
▁minţilor	-11.1596
▁cânte	-11.1596
▁For	-11.1598
▁plăcinte	-11.1599
▁ghe	-11.1599
▁supravieţuitori	-11.1601
▁începuturi	-11.1602
▁număr	-11.1603
▁atitudine	-11.1603
▁standuri	-11.1604
▁stric	-11.1606
▁Prima	-11.1607
nit	-11.1607
▁tăiat	-11.1608
☕🛋️	-11.1608
▁plăcintă	-11.161
▁neașteptate	-11.161
▁lenese	-11.161
▁organizare	-11.161
▁accesorii	-11.1611
▁captivaţi	-11.1612
🎨💫	-11.1612
▁sfârâit	-11.1612
▁prospere	-11.1612
văz	-11.1613
▁tăieturi	-11.1614
▁comunităţile	-11.1614
🍹🌴	-11.1618
▁trecutului	-11.1618
👅💦	-11.1618
▁festive	-11.1621
▁bunicul	-11.1622
▁obiectelor	-11.1624
▁pictez	-11.1624
▁🏰🏰	-11.1625
▁paturi	-11.1625
▁stresului	-11.1626
▁nunta	-11.1626
▁friptur	-11.1627
🍿📺	-11.1628
▁mergi	-11.163
ops	-11.163
▁filmelor	-11.1633
👧🏻	-11.1633
▁ascuțite	-11.1633
▁spontane	-11.1633
▁înrădăcinate	-11.1634
▁🌲🏔️	-11.1635
▁wit	-11.1635
▁ouă	-11.1636
▁🏄‍♂️🌊	-11.1637
▁viitorului	-11.1637
▁speranță	-11.1639
▁scrie	-11.164
▁pasionale	-11.1644
▁fierb	-11.1645
🔩🔨	-11.1648
▁liniştii	-11.1648
▁🆕	-11.1649
▁Burgeri	-11.1649
▁căşti	-11.165
▁combinate	-11.165
▁privitor	-11.1654
▁promova	-11.1655
▁călcat	-11.1655
▁trimite	-11.1657
▁🌆🏙️	-11.1658
▁🏙️🏗️	-11.1658
▁talentul	-11.1659
▁locală	-11.1659
▁gu	-11.166
▁🐘🐾	-11.1661
▁💑	-11.1663
▁meşteri	-11.1664
▁Staţi	-11.1667
▁meselor	-11.1668
▁mistică	-11.1669
▁Vine	-11.167
▁destinaţii	-11.1671
✌️😎	-11.1672
▁împing	-11.1677
▁pregăt	-11.1678
▁combinat	-11.1678
▁iubeşti	-11.1681
▁părinţii	-11.1681
▁🎨💡	-11.1684
▁romantică	-11.1684
▁Pla	-11.1687
▁conectez	-11.1689
▁eră	-11.1689
▁rog	-11.169
▁produce	-11.1691
▁reală	-11.1692
▁ch	-11.1692
▁ardei	-11.1693
💦☀️	-11.1694
▁👧👦	-11.17
▁interpretez	-11.17
perech	-11.1701
🌮🍜	-11.1702
▁găseşte	-11.1704
🏰🎭	-11.1704
▁prietenă	-11.1705
🎶🎭	-11.1707
▁multor	-11.1711
jo	-11.1712
▁Rec	-11.1713
▁rutine	-11.1716
▁orizonturi	-11.1723
▁personalizat	-11.1723
▁înţelepte	-11.1725
▁străluci	-11.1726
▁deţine	-11.1727
▁ceruri	-11.173
▁🌸👗	-11.173
▁proiectează	-11.1732
▁🚴‍♂️	-11.1735
▁🐝	-11.1736
▁potrivire	-11.1738
asca	-11.1739
🛌❄️	-11.1741
😌🌈	-11.1743
🔌💥	-11.1745
rman	-11.1749
💬❤️	-11.1751
📚💻	-11.1753
▁durabile	-11.1753
▁🙏💖	-11.1754
tur	-11.1756
🎵🎶	-11.1759
▁căde	-11.1761
▁pacienţii	-11.1765
🌵💪	-11.1766
▁stropit	-11.1767
▁Gen	-11.177
pers	-11.1772
▁fantastice	-11.1776
ever	-11.1778
▁afla	-11.1778
şc	-11.1779
▁examenul	-11.1785
▁erou	-11.1786
▁🏢💼	-11.1788
🍣😋	-11.1789
▁prezenta	-11.1789
▁adânci	-11.179
▁înota	-11.1794
▁punctat	-11.1796
▁tunete	-11.1797
▁ţipă	-11.1797
🛋️💤	-11.1798
▁recente	-11.1798
💫🌃	-11.1799
▁alimentelor	-11.1803
✏️📚	-11.1804
▁pregătită	-11.1805
notă	-11.1807
💃🎶	-11.1807
🌸🌼🌺	-11.181
⛩️🌸	-11.181
🦋🌺	-11.1812
💦💧	-11.1813
▁🌿🌱	-11.1814
▁timpurile	-11.1814
▁plictisitori	-11.1814
▁supreme	-11.1815
▁💼💪	-11.1818
▁fantastică	-11.182
▁animalelor	-11.182
▁ferme	-11.1826
▁of	-11.1827
🍽️✨	-11.183
▁🏒	-11.183
📸❤️	-11.1832
▁conduci	-11.1834
▁ocupate	-11.1836
▁🐇	-11.1837
▁lăsaţi	-11.184
▁🍣💕	-11.1842
💤😌	-11.1845
🌿🌱	-11.1852
▁relaxante	-11.1859
▁🍵	-11.186
▁bâzâi	-11.186
▁🐘🧠🐘	-11.1862
▁gal	-11.1863
▁situri	-11.1868
▁personale	-11.1873
▁🔧🛠️	-11.1874
▁⚽👥	-11.1875
🌸🌼🌷	-11.1875
▁Mar	-11.1876
▁🌅😌	-11.1878
▁'	-11.1878
▁captez	-11.1882
▁caban	-11.1883
😊🤗	-11.1883
▁💜🌿😌	-11.1889
▁conecteaz	-11.1894
🌶️🌽	-11.1895
▁🍩	-11.1896
▁🎍	-11.1899
▁/	-11.1899
🌈😊	-11.1911
▁Căţeluşi	-11.1913
🌟💼	-11.1915
💃💃	-11.1918
▁relaxeze	-11.192
▁supremi	-11.1923
🔌✨	-11.1926
vii	-11.1928
🔌💡	-11.1934
▁apei	-11.1943
▁salvând	-11.1947
nce	-11.1947
▁💻🎨	-11.1949
▁ambel	-11.1951
🌸🌟	-11.1952
▁informa	-11.1957
🌄👀	-11.196
💭🤔	-11.1971
▁❤️🤗	-11.1975
🤝👥	-11.1976
▁susţină	-11.1983
▁turnare	-11.1985
off	-11.1988
▁telefonul	-11.1992
▁motivat	-11.1996
👨‍🍳🔥	-11.2023
▁create	-11.2024
▁înv	-11.2037
ificat	-11.204
🍓🍌	-11.2042
▁tehnici	-11.2062
erveşte	-11.2062
▁dezlănțui	-11.2063
▁dispozitiv	-11.2063
▁ap	-11.2069
▁tipuri	-11.2073
💛🌼	-11.2076
▁sca	-11.2085
▁🚿	-11.2088
▁cules	-11.209
▁împachet	-11.2091
▁pierdută	-11.2093
💻💼	-11.2096
▁împărtăşi	-11.21
▁reprezentare	-11.2104
▁partener	-11.2111
💇	-11.2116
▁aşteptat	-11.212
▁Spik	-11.2124
anţe	-11.2135
▁🏔️🌊	-11.2139
👀💕	-11.215
🎉🤗	-11.2152
▁prăbuşi	-11.2154
🌮🤤	-11.2159
🎉🚀	-11.2163
▁Caut	-11.2168
▁🌵🌿	-11.2172
💖🤗	-11.2173
▁strălucitori	-11.2175
📚🛋️	-11.2176
🏞️🏰	-11.2188
ormula	-11.2192
▁deschidere	-11.2198
▁Tur	-11.2199
▁👩‍🎨	-11.2209
📚🌍	-11.2213
👀🤩	-11.2216
▁🏭	-11.2218
▁expresiei	-11.2221
▁induc	-11.2242
▁gătite	-11.2249
▁dovedi	-11.2252
▁schimbul	-11.2254
▁dub	-11.226
🔩🔧	-11.2274
▁sun	-11.2287
▁🍔😋	-11.2287
🌞💫	-11.229
▁🧀🍝	-11.23
▁deschisă	-11.2303
▁puloverele	-11.2306
▁tantaliz	-11.2309
▁puii	-11.2315
▁legăn	-11.2318
▁spați	-11.2331
🔧✅	-11.2335
▁🎶💃🕺	-11.2342
▁drumeţiile	-11.2347
🌟💞	-11.2364
🥰✨	-11.2366
▁🪑	-11.2374
🔥🤤	-11.2376
▁scufundă	-11.2379
ry	-11.2388
🌟📚	-11.239
▁🎨🌟	-11.2391
▁🏛️🏰	-11.2405
😋🍽️	-11.2418
💪🔩	-11.2432
💤🛌	-11.2437
▁🏞️🌿	-11.2443
🍃🍂	-11.2446
▁concur	-11.2447
👀🔍	-11.2453
hat	-11.2454
💻📱	-11.2455
▁copilul	-11.2457
▁🎨🎭	-11.2458
💨🛣️	-11.2458
👔💼	-11.246
▁🍳👩‍🍳	-11.2461
▁calmul	-11.2462
▁angaj	-11.2466
▁for	-11.2469
🧑‍🎓	-11.2474
▁🍎	-11.2482
🛣️🌅	-11.2498
💤🌙	-11.25
▁uite	-11.2502
▁Îmbrăţiş	-11.2518
▁uşur	-11.2524
❤️😄	-11.2524
☀️🧘‍♀️	-11.2525
🚶‍♂️🚶‍♀️	-11.2528
🌸❤️	-11.2533
🗺️🚶‍♀️	-11.2551
▁niveluri	-11.2553
▁jucător	-11.2559
▁🖼️🎨	-11.2566
🧠💭	-11.2568
▁urmărind	-11.2575
▁gustat	-11.2579
🌄👣	-11.2579
▁Hop	-11.2581
👑✨	-11.2584
▁❤️🌟	-11.2584
▁Vin	-11.2587
🌸🌻	-11.2592
💼🏢	-11.2592
▁faptul	-11.2595
🌌🌠	-11.2599
▁🇯🇵🍣	-11.2602
😍👀	-11.2604
▁simfoni	-11.2616
▁alege	-11.2616
🛀💆‍♀️	-11.2618
🏡😌	-11.2623
▁elimin	-11.2634
▁plimbă	-11.2641
▁înmuia	-11.2655
▁tunet	-11.2656
▁orchestr	-11.2661
❄️☀️	-11.2663
🚶‍♀️🌄	-11.2671
▁supravieţuit	-11.2671
🌍🚀	-11.2681
▁🌊🏊‍♀️	-11.2689
▁arma	-11.2689
☕❄️	-11.2691
😴💤	-11.2696
scape	-11.27
▁date	-11.2704
▁gât	-11.2707
👣💪	-11.271
🌻💛	-11.2711
▁destinați	-11.2714
▁realiz	-11.2715
▁zdrob	-11.2717
▁aprecie	-11.2724
nel	-11.2731
🌞🌺	-11.2732
▁complex	-11.2733
cat	-11.2733
🎉🎭	-11.2737
▁întâmpina	-11.2738
▁Echipa	-11.2741
▁cuib	-11.2746
▁duci	-11.2749
▁gra	-11.2754
vest	-11.2761
▁🌻💛	-11.2768
🍃🌻	-11.2773
▁🏄‍♀️🌊	-11.2775
▁înflor	-11.2775
▁experiment	-11.2778
▁înmui	-11.2779
▁combinați	-11.2782
❤️💥	-11.2787
▁excelent	-11.2789
▁cadr	-11.2789
▁încuraj	-11.2791
▁nesfârșit	-11.2795
▁post	-11.2795
▁🌵💚	-11.2796
ky	-11.2799
👧👦	-11.2799
▁satisfacți	-11.2801
🍃🌞	-11.2804
▁prietene	-11.2805
🔄✨	-11.2814
▁ambianţ	-11.2815
🌸🌸🌸	-11.2816
🍜🍣	-11.2817
▁🍀	-11.2818
▁societate	-11.2819
▁interpretare	-11.2821
▁plăcere	-11.2824
▁club	-11.2825
▁luxuriant	-11.2827
🚴	-11.2828
▁🎶🎤	-11.2829
🇪🇬	-11.283
🇲🇽	-11.2833
🍜🍲	-11.2837
K	-11.2839
vibes	-11.2839
Z	-11.284
👩‍👧	-11.2843
Sunt	-11.2844
▁rest	-11.2848
🌈🎶	-11.285
✨💅	-11.2851
🙌😊	-11.2857
🙏🏽	-11.2859
▁hrăni	-11.2866
fin	-11.2867
for	-11.2868
▁sincer	-11.2869
🚘💨	-11.287
▁şans	-11.2872
👟🔥	-11.2872
▁format	-11.2872
▁sprint	-11.2872
😎💯	-11.2876
▁🍳👨‍🍳	-11.2876
▁implic	-11.2881
🐘🐘	-11.2883
▁plăce	-11.2884
▁⛷️🏔️	-11.2886
🤩💃	-11.2886
tică	-11.2887
🥳🎉	-11.2889
▁text	-11.2894
🙌💫	-11.2894
▁Conduc	-11.2895
spect	-11.2895
▁favorit	-11.2897
▁haotic	-11.2898
▁salbatic	-11.2898
🌼💛	-11.29
▁ascuțit	-11.29
▁spontan	-11.29
▁necunoscut	-11.2905
▁pauz	-11.2906
▁truc	-11.2907
▁piure	-11.2908
▁grati	-11.2908
▁🏢🎨	-11.2914
▁graniţe	-11.2914
▁găteşt	-11.2921
▁faimoase	-11.2922
▁înrădăcinat	-11.2922
▁🌕	-11.2923
▁îndrept	-11.2925
▁potenţial	-11.2934
▁🧩	-11.2937
▁Soare	-11.2942
▁fascin	-11.295
▁sfat	-11.2953
📻	-11.2957
🌴🌿	-11.2958
💨🌊	-11.2965
▁faimo	-11.2965
Fii	-11.2965
▁pacienți	-11.2968
▁gigant	-11.297
▁🍽️🌍	-11.2973
🌈🖌️	-11.2974
▁Instru	-11.2977
potriv	-11.2978
🏟	-11.2981
☀	-11.2981
➡	-11.2981
🌨	-11.2981
▁mulțumi	-11.2982
▁Pregăt	-11.2982
▁skateboard	-11.2982
▁scurge	-11.2982
▁revoluţion	-11.2983
🍽️🎉	-11.2985
▁egal	-11.2985
▁cinema	-11.2985
▁palm	-11.2985
cunoștință	-11.2985
🦏	-11.2985
▁criminal	-11.2986
💳	-11.2986
9	-11.2986
🤷	-11.2986
🇪	-11.2986
👨‍👧‍👧	-11.2986
▁esenț	-11.2986
_	-11.2986
💁🏻‍♀️	-11.2986
🛬	-11.2986
🇩🇪	-11.2986
👛	-11.2986
🔸	-11.2986
🚔	-11.2986
🛐	-11.2986
🧑‍🔬	-11.2986
🔅	-11.2986
🛕	-11.2986
🪆	-11.2986
Wanderlust	-11.2986
notch	-11.2986
potențial	-11.2986
▁Animal	-11.2986
▁Baseball	-11.2986
▁Carnaval	-11.2986
▁Frumos	-11.2986
▁Incredibil	-11.2986
▁Noroc	-11.2986
▁Oraş	-11.2986
▁Spălători	-11.2986
▁Sunshine	-11.2986
▁Viteza	-11.2986
▁adversar	-11.2986
▁afacere	-11.2986
▁artefacte	-11.2986
▁biblioteci	-11.2986
▁ciuperci	-11.2986
▁clienți	-11.2986
▁comedie	-11.2986
▁comercial	-11.2986
▁comestibil	-11.2986
▁conversații	-11.2986
▁cărnoase	-11.2986
▁demonstr	-11.2986
▁deschişi	-11.2986
▁desigur	-11.2986
▁dornici	-11.2986
▁electronic	-11.2986
▁emoția	-11.2986
▁epuizare	-11.2986
▁fabuloas	-11.2986
▁frumoşi	-11.2986
▁gelato	-11.2986
▁hassle	-11.2986
▁hilar	-11.2986
▁incitant	-11.2986
▁intermediul	-11.2986
▁librări	-11.2986
▁macaroane	-11.2986
▁mecanic	-11.2986
▁memorabile	-11.2986
▁murdărie	-11.2986
▁nervozitate	-11.2986
▁neînfricaţi	-11.2986
▁oportunitate	-11.2986
▁opțiune	-11.2986
▁opțiuni	-11.2986
▁padure	-11.2986
▁pajişte	-11.2986
▁picurare	-11.2986
▁pietruite	-11.2986
▁planetei	-11.2986
▁rapel	-11.2986
▁redefin	-11.2986
▁reflectoarelor	-11.2986
▁reglabil	-11.2986
▁religi	-11.2986
▁selfie	-11.2986
▁semințe	-11.2986
▁semnificaţi	-11.2986
▁sinonim	-11.2986
▁spectaculos	-11.2986
▁structură	-11.2986
▁supravietui	-11.2986
▁surprinzător	-11.2986
▁tradiția	-11.2986
▁voastre	-11.2986
▁zâmbească	-11.2986
▁înţeleaptă	-11.2986
🌗	-11.2986
🏃🏻‍♂️	-11.2986
📕	-11.2986
🕋	-11.2986
😹	-11.2986
🚖	-11.2986
🟦	-11.2986
🥝	-11.2986
🦟	-11.2986
🩴	-11.2986
🪧	-11.2986
▁Familia	-11.2986
▁Iarna	-11.2986
▁Irland	-11.2986
▁Maraton	-11.2986
▁Minuni	-11.2986
▁aranjamente	-11.2986
▁atenție	-11.2986
▁avangardist	-11.2986
▁cardiovascular	-11.2986
▁deșert	-11.2986
▁duminici	-11.2986
▁eclectic	-11.2986
▁energic	-11.2986
▁exponate	-11.2986
▁incontestabil	-11.2986
▁manipul	-11.2986
▁piept	-11.2986
▁strategia	-11.2986
▁tablou	-11.2986
▁virtual	-11.2986
▁îmbătrân	-11.2986
🐌	-11.2986
🤴	-11.2986
▁clienţi	-11.2986
▁gatit	-11.2986
▁găleată	-11.2986
▁satisfacatoare	-11.2986
▁viziuni	-11.2986
▁zilnică	-11.2986
▁🏞️⛰️🥾	-11.2986
⬛	-11.2986
🌒	-11.2986
🔈	-11.2986
🧲	-11.2986
🧇	-11.2986
▁medicament	-11.2986
▁ooey	-11.2986
▁pasageri	-11.2986
▁tapas	-11.2986
▁tortilla	-11.2986
▁critic	-11.2986
▁gourmet	-11.2986
▁polenizare	-11.2986
▁sesiuni	-11.2986
▁teleport	-11.2986
▁sedan	-11.2986
▁centre	-11.2986
▁femei	-11.2986
▁însoţitori	-11.2986
▁🇬🇷🏛️	-11.2986
▁convingăto	-11.2986
▁furios	-11.2986
▁memoria	-11.2986
▁redusa	-11.2986
▁fiorduri	-11.2986
60	-11.2986
croissant	-11.2986
▁curioasă	-11.2986
▁urlă	-11.2986
▁Cuceri	-11.2986
▁expertiz	-11.2986
▁figuri	-11.2986
▁relaţi	-11.2986
▁Cacti	-11.2986
▁preajm	-11.2986
👨‍🎓	-11.2986
▁Simţiţi	-11.2986
▁dispera	-11.2987
▁meditație	-11.2987
▁evidenț	-11.2987
▁Prin	-11.2987
▁guac	-11.2987
▁inovație	-11.2987
▁lipicioasă	-11.2987
▁vibrație	-11.2987
▁drumeti	-11.2987
▁camuflaj	-11.2987
▁căror	-11.2987
⬅️	-11.2987
▁recompensatoare	-11.2987
🙇‍♂️	-11.2987
▁apropiați	-11.2987
▁Simţindu	-11.2987
▁saliv	-11.2987
▁spum	-11.2987
▁micuţ	-11.2987
▁deplin	-11.2987
▁compara	-11.2987
▁alpin	-11.2987
▁culcare	-11.2987
▁percepţia	-11.2987
▁loialităţii	-11.2987
▁barbotare	-11.2987
▁cunoaşterii	-11.2987
▁ceainic	-11.2987
▁Stil	-11.2987
▁păun	-11.2987
▁🎾🏸	-11.2987
▁savuroasă	-11.2987
▁scară	-11.2987
▁împiedic	-11.2987
▁platform	-11.2987
▁orbitor	-11.2988
▁tatăl	-11.2988
▁straluceste	-11.2988
▁bunătăţi	-11.2988
▁interes	-11.2988
▁aparent	-11.2988
▁înveselitor	-11.2988
▁rară	-11.2988
▁înveselire	-11.2988
▁înflorească	-11.2988
▁apropiere	-11.2988
▁siropoase	-11.2989
back	-11.2989
NatureLover	-11.2989
▁explodeze	-11.2989
▁ameţit	-11.299
▁Swing	-11.299
▁arsuri	-11.299
Buff	-11.2991
▁Bufniţele	-11.2991
▁forţei	-11.2991
👊🏼	-11.2991
▁perfectiune	-11.2992
▁solare	-11.2993
▁mulţi	-11.2993
▁gustos	-11.2993
▁🏄🌊	-11.2993
▁imita	-11.2993
▁uniform	-11.2994
👃🏻	-11.2995
▁pământească	-11.2995
ăsuţ	-11.2996
▁vertebrală	-11.2996
▁misterioasă	-11.2996
▁rulează	-11.2996
▁🎨🏙️🖌️	-11.2996
🔴🔵	-11.2997
▁distrează	-11.2997
▁furnicături	-11.2997
▁balansez	-11.2998
▁🐶🐾	-11.2998
▁pregăteşte	-11.2998
▁condiți	-11.2998
▁tinerilor	-11.2998
▁urs	-11.2999
▁Canada	-11.3
▁Snowboarding	-11.3
▁Street	-11.3
▁procesor	-11.3
▁💇‍♀️💨	-11.3
▁Complex	-11.3
▁mingi	-11.3
▁Trimite	-11.3
▁Jurnalis	-11.3001
▁ocupa	-11.3001
▁hit	-11.3002
▁periu	-11.3002
▁băt	-11.3002
▁ceapă	-11.3003
▁stătea	-11.3003
▁hip	-11.3004
▁medicinale	-11.3004
▁mana	-11.3005
▁cli	-11.3005
▁conac	-11.3005
▁Val	-11.3006
▁meditaţie	-11.3007
▁calatorie	-11.3007
▁neconvenţionale	-11.3007
nci	-11.3007
▁🏋️‍♂️💪	-11.3007
▁dune	-11.3008
▁delfinilor	-11.3008
▁suflând	-11.3009
▁seninătatea	-11.301
▁mentalitate	-11.301
▁curajului	-11.3011
▁colonial	-11.3011
▁bilete	-11.3011
▁cereşti	-11.3011
▁lectură	-11.3012
▁necondiționată	-11.3012
▁excepţională	-11.3013
▁diferenţă	-11.3013
▁note	-11.3013
▁ocupaţi	-11.3014
▁🏢🌃	-11.3015
▁marţi	-11.3015
▁locuiesc	-11.3016
▁încetin	-11.3016
🕶️👙	-11.3017
▁zdrobit	-11.3017
▁descoperiri	-11.3018
▁savanei	-11.3018
▁căști	-11.3018
▁hotar	-11.302
▁banane	-11.302
▁geometrice	-11.302
▁reflecţie	-11.302
patter	-11.3021
🏃🏻‍♀️	-11.3021
▁Namaste	-11.3023
▁reprezentări	-11.3023
▁🎳	-11.3023
▁emojis	-11.3023
▁mediului	-11.3023
▁ieşit	-11.3024
▁decorativ	-11.3024
▁⚽🌍🤝	-11.3025
▁confident	-11.3026
❤️🏞️	-11.3026
▁Antarctica	-11.3026
🤞🏼	-11.3027
💚😌	-11.3027
▁schiului	-11.3028
▁verdeaţă	-11.3029
▁dezamăgită	-11.3029
▁botanică	-11.3029
▁înzăpezită	-11.303
▁geniul	-11.303
▁localnicilor	-11.3033
▁universal	-11.3036
▁întări	-11.3036
🎨🌸	-11.3037
▁spectacolului	-11.3038
▁Exerciţi	-11.3039
▁🏰🏛️	-11.3039
⛰️🌳	-11.3039
▁nepoat	-11.304
▁abandonat	-11.3042
▁🚗💨🛣️	-11.3043
▁trezeşt	-11.3044
🌸🦋	-11.3044
▁🏔️🏞️	-11.3044
🍛🥘	-11.3045
▁american	-11.3046
▁Ador	-11.3046
▁dorinţ	-11.3046
▁celebrări	-11.3047
🌮🌮	-11.3047
▁sarutat	-11.3048
▁îmbrăţişând	-11.3048
🧥🔥	-11.3049
▁acoperişul	-11.3052
▁stand	-11.3052
ella	-11.3052
▁mulțimii	-11.3053
▁nivelat	-11.3053
▁ge	-11.3054
bele	-11.3058
▁extravagante	-11.306
▁rev	-11.3061
▁haosul	-11.3063
▁agile	-11.3063
▁necesară	-11.3064
▁ideilor	-11.3064
▁🇮🇳🕌	-11.3066
mento	-11.3067
▁întâmpla	-11.3067
▁competiție	-11.3067
▁jumping	-11.307
▁🍕🍕🍕	-11.3071
▁🌧️☔	-11.3072
▁vietii	-11.3072
▁🌞🏖️	-11.3074
▁necunoscute	-11.3074
▁As	-11.3075
▁apăra	-11.3076
▁sculptate	-11.3078
😄❤️	-11.3081
ook	-11.3086
🧘‍♂️💆‍♀️	-11.3086
▁idilice	-11.3087
▁reparaţiile	-11.3087
▁energetice	-11.3088
▁ocazionale	-11.3088
▁apropiate	-11.3088
▁experimenteze	-11.3089
▁netede	-11.3089
▁Scu	-11.3089
🎧🎶	-11.3092
unday	-11.3092
▁vr	-11.3094
🗣️❤️	-11.3094
▁📚✨	-11.3095
▁👵🏼	-11.31
▁sărbătorită	-11.3101
▁părăsi	-11.3102
▁hrăn	-11.3103
▁spălare	-11.3104
✨🌎	-11.3106
▁parade	-11.3108
▁🏃‍♀️🏃‍♂️	-11.3109
▁fierul	-11.3113
▁suculentelor	-11.3114
▁friptură	-11.3114
💡💬	-11.3115
▁rurale	-11.3116
▁masivă	-11.3116
▁🇨🇦	-11.3117
🍂❄️	-11.3121
▁⛈️🌩️	-11.3121
🛣️🌄	-11.3122
🌃🏙️	-11.3122
🧘‍♀️💆‍♂️	-11.3125
▁💜🌸	-11.3125
▁tăiate	-11.3125
▁Alunecare	-11.3127
▁rustice	-11.313
▁productivă	-11.3132
▁savurez	-11.3132
Mătușile	-11.3133
▁secretă	-11.3134
▁capsa	-11.3136
▁doza	-11.3136
▁victoria	-11.3138
▁Tu	-11.3138
▁iubi	-11.3141
▁imi	-11.3141
▁🇲🇽	-11.3141
▁tradiţiilor	-11.3144
🔋⚡	-11.3146
▁grav	-11.3149
▁transpirat	-11.3157
▁decorat	-11.3158
▁biciclete	-11.3158
▁Seri	-11.3159
💪🔋	-11.316
flat	-11.3162
📈💰	-11.3163
▁🌮❤️	-11.3163
▁emoțional	-11.3164
▁extraordinară	-11.3166
▁iubind	-11.3167
▁ideală	-11.3167
▁interpretarea	-11.3168
▁⛄	-11.3172
💪🏼💯	-11.3173
hini	-11.3175
▁dansului	-11.3179
▁branduri	-11.318
▁odihn	-11.3183
▁remedi	-11.3184
▁👔💼	-11.3184
▁reţetă	-11.3185
▁dimensiunea	-11.3185
▁linistita	-11.3185
✨🌼	-11.3185
▁👨‍⚕️	-11.3193
▁fațad	-11.3199
▁sor	-11.3201
▁🌊🏄‍♀️	-11.3205
▁învăluind	-11.3206
😌🌸	-11.3208
▁estetică	-11.3209
▁continua	-11.3213
▁spatiul	-11.3213
▁👚👖	-11.3214
▁🧔	-11.3214
▁imaginației	-11.3215
🎭🖼️	-11.3216
▁compactă	-11.322
▁🌲⛰️	-11.3222
👵🏻	-11.3222
▁conectat	-11.3226
💨😌	-11.3227
▁anul	-11.3228
şe	-11.3228
▁stânci	-11.3229
🌸😌	-11.3232
▁🐝🌼	-11.3234
🎤🎶	-11.3235
▁Ascult	-11.3235
▁ușura	-11.3236
▁Intr	-11.3237
▁🌸🌳	-11.3238
▁poze	-11.3241
▁responsabil	-11.3243
▁⛷️❄️	-11.3245
▁pălării	-11.3247
ian	-11.3248
😋💯	-11.3251
▁domina	-11.3251
▁zip	-11.3255
▁utilă	-11.3255
🧘‍♀️✨	-11.3261
inta	-11.3262
🌆🌇	-11.3264
▁autentică	-11.3265
▁tărâmuri	-11.3266
▁imbatabilă	-11.327
▁⛪🙏	-11.3273
▁luminii	-11.3276
▁munci	-11.3277
▁🏔️🌲	-11.3289
▁bloc	-11.329
▁părului	-11.3291
💼🎯	-11.3293
▁🌵🌱	-11.3295
▁apreciat	-11.3295
🏊‍♂️🏊‍♀️	-11.3302
anas	-11.3304
▁irezistibile	-11.3305
🌞🕶️	-11.3307
▁👕👖	-11.3309
▁magnifici	-11.3313
🤤😍	-11.3313
nder	-11.3314
🛠️🪚	-11.3315
▁salat	-11.3317
rosu	-11.3318
▁Le	-11.332
🎉🤩	-11.3325
🗣️💬	-11.3326
▁van	-11.3327
▁🌴🏖️	-11.3329
🧣❄️	-11.3333
ajul	-11.3335
▁dezvăluind	-11.3337
🤩💪	-11.334
ţiilor	-11.3342
▁👨‍💻	-11.3342
▁reprezenta	-11.3347
▁sculpta	-11.3347
onul	-11.3352
▁⛈️🌧️	-11.3357
😎🏖️	-11.3361
▁go	-11.3362
🕺🏽	-11.3363
▁cursă	-11.3364
▁hait	-11.3365
▁navig	-11.3365
☕🌧️	-11.3366
▁escapade	-11.3369
▁serv	-11.3371
▁plăcută	-11.3378
▁🌵🌵	-11.3381
dict	-11.3381
▁copilăriei	-11.3385
▁🤩✈️	-11.339
▁creați	-11.3397
💕👨‍👩‍👧‍👦	-11.3406
▁☕⚡	-11.3409
💭💕	-11.341
Car	-11.3414
▁reconfortantă	-11.3414
▁interesantă	-11.3418
▁picantă	-11.3418
▁☕❤️	-11.3419
▁atingând	-11.342
▁🌞☀️	-11.3422
🏆🔥	-11.3424
🏥❤️	-11.3424
🌃🌟	-11.3434
▁🏊‍♀️🌊	-11.3436
▁tendinţe	-11.3436
shi	-11.3438
🏡💚	-11.344
▁canaliz	-11.3441
mart	-11.3443
▁construieşt	-11.3447
▁personală	-11.3456
▁întruniril	-11.347
▁Sal	-11.3471
👯‍♀️❤️	-11.3475
▁Cunoscut	-11.3477
🔨✨	-11.3479
▁🏢🖌️	-11.348
▁🏍️🏞️	-11.3481
▁🧖‍♀️	-11.3482
▁vorbit	-11.3483
▁descoperite	-11.3488
▁imensa	-11.349
🕰️💭	-11.3494
🌍🤝	-11.3497
💪🤩	-11.3499
tit	-11.3501
🌞💨	-11.3514
🏔️🌅	-11.3516
▁concerte	-11.3526
▁disciplin	-11.3526
▁iconică	-11.3526
😁✨	-11.3527
▁Îmbrăţişând	-11.3527
▁🏬	-11.3528
👅💥	-11.3531
🌪️💥	-11.3535
▁🛫	-11.3535
▁🎭🎨	-11.3536
ack	-11.3541
▁🏰🕌	-11.3544
▁Savur	-11.3546
Escape	-11.3555
🌴🌞	-11.3556
▁mări	-11.3556
🏰🕍	-11.3565
🎊🎉	-11.3566
▁🎉🎊	-11.3569
▁traficul	-11.3571
💃💕	-11.3574
▁aruncă	-11.3576
▁🗿✨	-11.3579
🏞️💦	-11.358
▁aventurier	-11.3588
▁art	-11.3588
🔊🎶	-11.3589
▁🥵	-11.3591
▁🧹💨	-11.3593
▁varietatea	-11.3596
🥦🥕	-11.3602
▁🏔️🌳	-11.3604
⚙️🔩	-11.361
▁extreme	-11.3618
▁🥣	-11.362
▁😰	-11.3628
🏙️🌆	-11.3632
▁Cal	-11.3639
▁🌿🏞️	-11.3643
🎉🎶	-11.3646
▁👩‍💻	-11.3647
👟💪	-11.3652
🏡❤️	-11.3653
▁opreşt	-11.3657
🌌💭	-11.3658
💫🌈	-11.367
▁ferestrei	-11.3672
🌍🔍	-11.3673
🙏💖	-11.3674
🍣🍱	-11.3678
▁televizorul	-11.3682
🌧️💦	-11.3685
▁spăl	-11.3692
itter	-11.3694
▁tantaliza	-11.3694
▁învăţare	-11.37
👗🎉	-11.3701
▁salv	-11.3705
💗✨	-11.3706
▁proces	-11.3711
oarea	-11.3713
▁nisipuri	-11.3713
💉🏥	-11.3714
▁jur	-11.3714
rize	-11.3717
👥💬	-11.3723
▁🎭🌟	-11.3733
dura	-11.3746
▁🌿💜🌸	-11.3751
▁semne	-11.3758
▁📷🌅	-11.3758
▁🌸🌸🌸	-11.3762
🏢💎	-11.3765
▁Ah	-11.3768
▁🏝️🌊	-11.377
🌿🎨	-11.3771
🍞🔥	-11.3771
siunea	-11.3776
▁câştigă	-11.3779
▁doved	-11.3779
▁🍳🔥	-11.3783
👊💥	-11.3784
▁fort	-11.3788
▁sm	-11.3792
▁lutul	-11.3801
🌮🍕	-11.3807
▁întorc	-11.3809
▁uim	-11.381
Am	-11.3811
🌅🌊	-11.3814
💪🌊	-11.3823
🧀🥓	-11.3838
▁întindere	-11.3838
🌸🌅	-11.3841
✨🏙️	-11.3848
🎨🔍	-11.3851
▁Scufund	-11.3852
🌊🏄‍♂️	-11.386
🌡️🔥	-11.3861
▁asambla	-11.3878
▁sărbătorit	-11.3883
▁Zen	-11.3886
▁Form	-11.3892
▁☕🌅	-11.3893
▁🌺🌴	-11.3893
▁🏙️💫	-11.3893
▁intră	-11.3897
sing	-11.3904
▁🏀❤️	-11.3908
👖❤️	-11.3916
over	-11.3917
▁❄️✨	-11.3918
▁îngheţ	-11.3923
▁👠	-11.3928
lie	-11.3928
🌬️🌨️	-11.3933
💥🙌	-11.3936
▁crim	-11.3938
🏊‍♂️🌊	-11.3942
▁coame	-11.3947
▁izbucn	-11.3947
!!!	-11.3956
▁dură	-11.3962
☕🌅	-11.3964
▁🏟️	-11.3965
▁🚧	-11.3965
▁🏖️🌅	-11.397
▁filtr	-11.3994
🌟😄	-11.3997
🔥🧥	-11.3998
▁🏆💪	-11.4007
💯🏆	-11.4009
▁Che	-11.402
tiri	-11.4026
▁☕📚	-11.4026
▁sn	-11.4031
▁🚙🌲	-11.4032
țiile	-11.4033
▁bântuit	-11.4037
In	-11.406
⏰💪	-11.4061
abilitatea	-11.4066
▁căută	-11.4068
🌄❤️	-11.4068
😋👌🏼	-11.4071
🌼🍃	-11.4073
▁abord	-11.4077
▁trai	-11.4077
▁🌆🎨	-11.4081
▁ocup	-11.4082
▁concept	-11.4083
▁metropol	-11.4088
▁Au	-11.4088
▁telefon	-11.409
▁cabane	-11.4097
▁Plant	-11.4101
🌳🌄	-11.4104
⛱️🌊	-11.4105
Art	-11.4106
▁comportament	-11.4114
▁călător	-11.4114
❄️🌲	-11.4124
🧘‍♀️❤️	-11.4129
▁🌼🌸	-11.413
▁❄️🌡️	-11.4131
🌿🧘‍♀️	-11.4136
▁Ph	-11.4137
✨🏛️	-11.4142
▁bâzâit	-11.4144
▁priv	-11.4154
▁🏞️🏔️	-11.4155
▁crește	-11.4163
▁deget	-11.4167
▁uz	-11.4173
▁🏡🍃	-11.4183
▁hai	-11.4185
▁caps	-11.4196
▁☀️🌅	-11.4198
🤩🙌	-11.4202
▁reamint	-11.421
💪🏁	-11.4227
🌸🎨	-11.4235
own	-11.4243
▁agil	-11.4252
🍜😋	-11.4264
▁străluc	-11.4265
▁nuanţ	-11.427
▁potrivi	-11.4283
▁victori	-11.4291
▁Navig	-11.4299
🌟🤗	-11.4299
🤩❤️	-11.43
🌄⛰️	-11.4304
▁stânc	-11.4307
▁ho	-11.4314
▁🐢🌊	-11.4315
🛠️🔧	-11.4317
🧠💪	-11.432
▁legendar	-11.432
🌴🏖️	-11.4322
▁Ru	-11.433
rind	-11.4341
🌊😌	-11.4343
▁local	-11.4352
alta	-11.4358
▁ușur	-11.4366
▁poezi	-11.4368
▁❄️⛷️	-11.4377
▁☀️🐦	-11.4384
👏🏻	-11.4389
▁rot	-11.4401
▁ţip	-11.4402
clar	-11.4406
▁agit	-11.441
▁emoţi	-11.4413
▁📚☕	-11.4415
cas	-11.4415
izare	-11.4418
que	-11.4427
👥💕	-11.4429
▁provoca	-11.4432
▁brand	-11.4437
▁lin	-11.4444
▁🌧️⛈️	-11.4447
🌸☀️	-11.4447
wing	-11.4452
🏞️🍃	-11.4452
▁expresiv	-11.4452
👗🌸	-11.4453
▁comunităţi	-11.4455
▁gest	-11.4456
▁merita	-11.4464
▁🚘💨	-11.447
🔮💫	-11.447
▁🐘💪	-11.4472
▁🌳🌿	-11.4476
▁flexibilitate	-11.4479
😂🤣	-11.4482
▁fixare	-11.4492
▁Trat	-11.4493
▁linişti	-11.4495
👨‍👦‍👦	-11.4495
🇦🇺	-11.4496
▁speci	-11.4496
🌿🐾	-11.4497
🇪🇸	-11.4499
🇨🇦	-11.45
🇹🇭	-11.4501
👶🏻	-11.4504
suflare	-11.4505
media	-11.4506
J	-11.4506
▁rep	-11.4508
negru	-11.4509
+	-11.4509
Merg	-11.451
Astăzi	-11.451
#	-11.4511
▁tenta	-11.4512
🎬🍿	-11.4517
▁delfin	-11.4525
ainte	-11.4526
▁📚✏️	-11.4527
▁canguri	-11.4529
gust	-11.4535
🔥🤗	-11.4538
rry	-11.4542
▁dormi	-11.4543
▁speranț	-11.4544
stil	-11.4544
▁pașnic	-11.4545
😴🌙	-11.4547
▁🌸🌷	-11.4547
▁furtunoas	-11.4547
spitalitate	-11.4548
▁deţin	-11.4549
▁piatr	-11.4549
etrecut	-11.4553
🔨🔩	-11.4553
▁🎨🤔	-11.4553
▁festiv	-11.4558
🍃💆‍♀️	-11.4558
cana	-11.4558
▁doz	-11.4559
▁frânt	-11.4563
▁transformare	-11.4563
ny	-11.4564
▁stresat	-11.4565
▁extravagant	-11.4566
▁ascuţit	-11.4568
▁transmit	-11.4569
▁independent	-11.4569
▁vânăto	-11.4569
▁ornat	-11.457
▁mural	-11.457
▁solid	-11.4572
▁zone	-11.4575
🌄🌊	-11.4579
▁pârtii	-11.4579
▁pasiuni	-11.4579
▁încânta	-11.4581
▁perfecţi	-11.4582
▁păt	-11.4583
port	-11.4588
ochi	-11.4591
▁recompens	-11.4592
▁frustra	-11.4596
▁arde	-11.4596
▁târ	-11.4598
▁inspirând	-11.4601
▁gr	-11.4602
bilitățil	-11.4609
▁crede	-11.461
💼👨‍💼	-11.4612
▁jel	-11.4614
▁dețin	-11.4616
▁inspirați	-11.4616
▁scut	-11.4618
✨🖤	-11.4623
▁proprietă	-11.4627
▁col	-11.463
▁nave	-11.4635
▁monta	-11.4637
▁terapeut	-11.4639
presionismul	-11.4639
▁medit	-11.464
▁locuit	-11.464
▁mulţum	-11.4641
▁trans	-11.4641
tina	-11.4642
▁atlet	-11.4642
▁răcni	-11.4642
▁permiţând	-11.4643
▁impresion	-11.4645
👨‍🏫	-11.4646
💡📚	-11.4646
lujba	-11.4647
runch	-11.4648
🖐	-11.4648
🕹	-11.4648
✂	-11.4648
🌤	-11.4648
✔	-11.4648
🏕	-11.4648
Lover	-11.4648
▁emis	-11.4649
▁stoca	-11.4649
▁nerăbd	-11.465
▁plictis	-11.4651
▁înțeleg	-11.4651
🧖‍♂️	-11.4651
▁ateriza	-11.4652
🏸	-11.4652
▁umfl	-11.4652
▁confuz	-11.4652
🙆	-11.4652
🧖	-11.4652
q	-11.4652
👩🏽‍	-11.4652
drăzneț	-11.4653
🇳	-11.4653
Scooter	-11.4653
🐫	-11.4653
board	-11.4653
🕘	-11.4653
⏫	-11.4653
🚆	-11.4653
🧿	-11.4653
🪰	-11.4653
🫓	-11.4653
▁înfrumuseţ	-11.4653
🏉	-11.4653
🐖	-11.4653
🔺	-11.4653
🕖	-11.4653
😧	-11.4653
😸	-11.4653
🤺	-11.4653
🦎	-11.4653
🪢	-11.4653
catching	-11.4653
conștient	-11.4653
uzicieni	-11.4653
▁Bluetooth	-11.4653
▁Caligrafi	-11.4653
▁Clătite	-11.4653
▁Crăciun	-11.4653
▁Delicat	-11.4653
▁Dezvoltare	-11.4653
▁Elefant	-11.4653
▁Jamaica	-11.4653
▁Leneşii	-11.4653
▁Nevoi	-11.4653
▁Prânz	-11.4653
▁Păstrarea	-11.4653
▁Păsările	-11.4653
▁Pășește	-11.4653
▁Spectacol	-11.4653
▁Wrangler	-11.4653
▁acvatic	-11.4653
▁ambalaj	-11.4653
▁ambianț	-11.4653
▁amănuntul	-11.4653
▁antreprenor	-11.4653
▁astronaut	-11.4653
▁atracţii	-11.4653
▁bivol	-11.4653
▁borcan	-11.4653
▁centimetr	-11.4653
▁chunky	-11.4653
▁ciripesc	-11.4653
▁comunități	-11.4653
▁conditii	-11.4653
▁construcţii	-11.4653
▁căptuş	-11.4653
▁depărtare	-11.4653
▁distracţia	-11.4653
▁drive	-11.4653
▁eficienţ	-11.4653
▁esential	-11.4653
▁extinsă	-11.4653
▁folclor	-11.4653
▁glezna	-11.4653
▁gratuit	-11.4653
▁ierburi	-11.4653
▁imortaliz	-11.4653
▁infecţioase	-11.4653
▁infracţiuni	-11.4653
▁intertwine	-11.4653
▁jazz	-11.4653
▁literalmente	-11.4653
▁lămâi	-11.4653
▁maratoane	-11.4653
▁matematic	-11.4653
▁mozaic	-11.4653
▁multifuncțional	-11.4653
▁naştere	-11.4653
▁nespuse	-11.4653
▁patinoar	-11.4653
▁performant	-11.4653
▁performanță	-11.4653
▁pericol	-11.4653
▁piercing	-11.4653
▁pixeli	-11.4653
▁podgorii	-11.4653
▁recunoaşte	-11.4653
▁reggae	-11.4653
▁relaxându	-11.4653
▁râzi	-11.4653
▁răcnet	-11.4653
▁răcoros	-11.4653
▁showtopper	-11.4653
▁sociabil	-11.4653
▁spray	-11.4653
▁strecura	-11.4653
▁superstar	-11.4653
▁suprafață	-11.4653
▁sârmă	-11.4653
▁tematic	-11.4653
▁teritoriul	-11.4653
▁treabă	-11.4653
▁umplând	-11.4653
▁vacanta	-11.4653
▁vinovat	-11.4653
▁Îndrăzneţ	-11.4653
▁înclin	-11.4653
▁înfrunt	-11.4653
▁întâmple	-11.4653
▁înălțimi	-11.4653
▁ţopăi	-11.4653
▁șansă	-11.4653
🏏	-11.4653
🐮	-11.4653
🛸	-11.4653
]	-11.4653
▁Eleganţ	-11.4653
▁Marvel	-11.4653
▁Palatul	-11.4653
▁Straturi	-11.4653
▁atracti	-11.4653
▁bestie	-11.4653
▁experţi	-11.4653
▁iaht	-11.4653
▁impresionistă	-11.4653
▁proastă	-11.4653
▁savoare	-11.4653
▁tentante	-11.4653
▁tristețe	-11.4653
▁științ	-11.4653
▁👵🏼👴🏼	-11.4653
🌔	-11.4653
📯	-11.4653
🔟	-11.4653
🚇	-11.4653
▁Elegant	-11.4653
▁centura	-11.4653
▁neînfricat	-11.4653
▁vacanţe	-11.4653
▁Înflori	-11.4653
▁împlinire	-11.4653
▁împărţi	-11.4653
▁Tokyo	-11.4653
▁Umple	-11.4653
▁corect	-11.4653
▁planeta	-11.4653
▁satisfacator	-11.4653
🛺	-11.4653
Cozy	-11.4653
▁coasta	-11.4653
▁motociclete	-11.4653
▁îngrijirii	-11.4653
🧝‍♀️	-11.4653
▁Emoți	-11.4653
▁Munţii	-11.4653
▁arţar	-11.4653
▁răutăcioase	-11.4653
▁rosie	-11.4653
▁sanatoas	-11.4653
🤾‍♂️	-11.4653
🧞‍♀️	-11.4653
▁atras	-11.4653
▁festivități	-11.4653
▁centrat	-11.4653
▁facilităţi	-11.4653
▁materii	-11.4653
pleacă	-11.4653
▁condiționat	-11.4653
⛹️‍♀️	-11.4653
🇮🇪	-11.4653
Educaţia	-11.4653
▁munti	-11.4653
▁viguroas	-11.4653
▁foto	-11.4653
▁lipici	-11.4653
▁şosete	-11.4653
▁alarmă	-11.4653
▁balcon	-11.4653
▁solară	-11.4653
▁reconect	-11.4653
▁Cânt	-11.4653
▁câștigătoare	-11.4653
▁jurnalist	-11.4653
▁🕷️🌱	-11.4653
▁nervi	-11.4653
Magic	-11.4653
▁generație	-11.4653
▁Cangur	-11.4653
▁Castele	-11.4653
▁naţiuni	-11.4653
▁toarnă	-11.4653
▁decide	-11.4653
▁excel	-11.4653
▁îndrăzneal	-11.4653
▁🧼🍽️	-11.4653
▁poetic	-11.4653
▁curent	-11.4653
👨‍🚒	-11.4653
▁🌧️🐱🐶	-11.4653
▁🍴👨‍🍳	-11.4653
▁Umbl	-11.4653
rampe	-11.4653
▁🍣🐟🍚	-11.4654
lipsă	-11.4654
▁Palm	-11.4654
▁manevra	-11.4654
▁şosea	-11.4654
▁Captura	-11.4654
▁Păși	-11.4654
▁100	-11.4654
▁înţeles	-11.4654
▁asum	-11.4654
▁Duşuri	-11.4654
▁Porn	-11.4654
▁cravată	-11.4654
👨‍👨‍👧‍👦	-11.4654
▁turnante	-11.4654
▁încărcător	-11.4654
▁zăpada	-11.4654
▁lot	-11.4654
▁regină	-11.4654
▁conţin	-11.4654
▁înfrumuseț	-11.4654
▁emoționant	-11.4654
▁impresioneze	-11.4654
▁ştiind	-11.4654
afeaua	-11.4654
▁genial	-11.4654
▁regina	-11.4654
▁noroi	-11.4654
▁🍫🎂	-11.4654
▁goală	-11.4654
▁Îndepărtează	-11.4654
ştri	-11.4654
▁aride	-11.4655
▁opţiun	-11.4655
▁împlinitoare	-11.4655
▁cautatori	-11.4655
▁riduri	-11.4655
nizare	-11.4655
▁cuplu	-11.4655
🧖‍♀️🧖‍♂️	-11.4655
▁portocalii	-11.4655
▁zâmbitoare	-11.4655
▁coada	-11.4655
▁urmăreşt	-11.4655
▁spatii	-11.4655
▁Sport	-11.4655
▁savuros	-11.4655
▁despărţire	-11.4656
▁umbl	-11.4656
▁nebunie	-11.4656
▁inovații	-11.4656
▁dovad	-11.4656
▁pho	-11.4656
▁sumbru	-11.4656
▁China	-11.4656
▁🐘🐘🐘	-11.4656
🏃🏽‍♂️	-11.4656
▁🔧💪🔩	-11.4656
▁lapte	-11.4656
▁Rio	-11.4656
▁mutat	-11.4656
▁🌈🌦️	-11.4656
▁🛠️🔧🔩	-11.4657
▁🇨🇭🏔️	-11.4657
▁revin	-11.4657
💄💋	-11.4657
▁Mişc	-11.4657
▁🔌🔫	-11.4657
▁Asta	-11.4657
▁sărută	-11.4657
▁stup	-11.4657
▁🥞🍓	-11.4658
▁Loc	-11.4658
🌧️❤️	-11.4658
▁festivităţi	-11.4658
▁eliberator	-11.4658
👨‍🎨👩‍🎨	-11.4658
▁civilizaţii	-11.4659
▁depozitare	-11.4659
▁barcă	-11.4659
🥅⚽	-11.4659
▁sud	-11.4659
🍅🥑	-11.466
rbă	-11.466
▁🍕😍🧀	-11.4661
▁meticulos	-11.4661
▁oceanelor	-11.4661
▁⛸️❄️	-11.4661
▁pap	-11.4662
▁🍂🧥	-11.4662
▁🏔️🚶‍♂️	-11.4662
▁privitorului	-11.4663
▁Bibliotecile	-11.4663
▁💪🏋️‍♂️	-11.4663
▁aspir	-11.4664
▁reuni	-11.4664
▁spart	-11.4664
▁figura	-11.4664
▁relaxează	-11.4664
▁bluz	-11.4665
ppy	-11.4665
▁asigurând	-11.4665
▁🍣🍚	-11.4665
▁orasului	-11.4665
▁veveriţ	-11.4666
▁onoare	-11.4666
▁dis	-11.4666
▁fermoar	-11.4666
addleboarding	-11.4666
▁supărat	-11.4667
▁poporul	-11.4667
▁glam	-11.4667
▁emisii	-11.4667
▁mori	-11.4667
▁picior	-11.4668
▁inspirator	-11.4668
▁mărimi	-11.4668
▁lanţuri	-11.4669
▁Monstera	-11.4669
▁Zoom	-11.4669
▁nativ	-11.4669
▁educaţie	-11.4669
▁provocat	-11.4669
▁Gust	-11.467
▁🌵💧	-11.467
▁concentrat	-11.467
▁usurinta	-11.4671
▁🍔🤤	-11.4671
▁☀️🌊🏖️	-11.4672
▁inovativ	-11.4672
🍷🧀	-11.4672
▁Creați	-11.4673
▁feminin	-11.4673
▁energizant	-11.4673
▁contează	-11.4673
▁scor	-11.4673
▁romantismului	-11.4674
▁Jam	-11.4674
▁pacienților	-11.4675
▁economisire	-11.4675
▁Ţineţi	-11.4676
▁banale	-11.4677
▁excepţionale	-11.4678
vy	-11.4678
▁poz	-11.4679
filare	-11.4681
▁Sna	-11.4681
▁☀️🥵	-11.4682
rage	-11.4682
▁râdem	-11.4682
🍳🥘	-11.4682
▁expun	-11.4682
▁mirosuri	-11.4683
▁limonadă	-11.4684
▁sumbră	-11.4684
▁beau	-11.4685
▁adevărului	-11.4686
▁fler	-11.4687
▁glo	-11.4687
▁ambiţiei	-11.4688
▁artiștilor	-11.4688
▁locuitori	-11.4688
▁umbre	-11.4688
🐦🎶	-11.4689
▁recomanda	-11.4689
▁majorete	-11.4689
▁resturile	-11.4691
▁blocat	-11.4692
▁Deci	-11.4693
🖥️💻	-11.4693
🌶️🧀	-11.4693
▁extinde	-11.4694
▁intotdeauna	-11.4694
🎶😍	-11.4695
▁crezi	-11.4695
▁înzăpezite	-11.4697
▁bătut	-11.4698
▁defini	-11.4699
Master	-11.4701
🌳🦌	-11.4702
▁gândit	-11.4702
▁provocărilor	-11.4702
▁căzând	-11.4703
▁curbele	-11.4703
▁vicleană	-11.4704
▁fluturilor	-11.4705
▁strategică	-11.4705
▁unghiilor	-11.4705
▁caiac	-11.4705
▁Încă	-11.4707
▁rotunde	-11.4709
▁🎨🌈🖌️	-11.471
▁deşerturi	-11.471
▁abundente	-11.471
▁🧘‍♀️🌅	-11.4711
lalt	-11.4711
▁Muzeele	-11.4711
▁Văzându	-11.4713
▁aspectele	-11.4713
uncă	-11.4714
▁îndrumare	-11.4717
ney	-11.4717
▁petele	-11.4718
free	-11.472
▁💪🏋️‍♀️🏋️‍♂️	-11.472
▁degetelor	-11.4721
▁regalitate	-11.4721
▁crusta	-11.4723
▁succesului	-11.4723
▁😟	-11.4725
▁strecoară	-11.4725
▁uşurată	-11.4726
💻🌟	-11.4726
▁Arată	-11.4727
▁Sos	-11.4727
▁dominat	-11.4728
▁rezervat	-11.4728
▁🐬💦	-11.4731
🐠🌊	-11.4731
▁polari	-11.4733
🤔❓	-11.4735
▁relaxați	-11.4737
▁Stand	-11.4738
💪🏋️‍♀️	-11.4739
▁inalta	-11.474
▁inspiri	-11.4741
▁călătorind	-11.4741
▁solide	-11.4742
▁👩‍🍳🔥	-11.4742
▁șuruburilor	-11.4743
▁expresive	-11.4744
▁astazi	-11.4747
▁infinită	-11.4747
Time	-11.4751
👖💤	-11.4755
gami	-11.4756
▁salbatice	-11.4758
▁sincere	-11.4758
▁curajul	-11.4761
▁cititori	-11.4764
ităţile	-11.4764
🤿🐠	-11.4765
🚀🌍	-11.477
▁stresată	-11.4771
🔎💡	-11.4773
▁Salv	-11.4773
▁nocturne	-11.4773
▁👩‍🏫📚	-11.4774
▁⛈️⚡	-11.4776
▁distinctive	-11.4776
▁masive	-11.4776
rap	-11.4777
▁🌵☀️	-11.4779
▁cangurii	-11.4779
💪✅	-11.478
▁🌿🏠	-11.4781
▁odihnă	-11.4782
▁stelelor	-11.4783
▁mânui	-11.4783
▁tiparel	-11.4784
▁tata	-11.4784
🔥👨‍🍳	-11.4786
▁îndeplineşt	-11.4789
▁rac	-11.4793
▁forț	-11.4793
▁ur	-11.4796
▁🌌🎨	-11.4797
▁puteri	-11.4798
▁culturilor	-11.4805
▁etaje	-11.4807
pen	-11.4807
▁suplimentare	-11.4807
▁elveţiană	-11.4807
▁eternă	-11.4807
▁impecabile	-11.4808
▁purificare	-11.4809
💥👊	-11.481
▁durabilitate	-11.4812
▁😂🤣	-11.4814
▁reflexe	-11.4816
✨🦋	-11.4816
Day	-11.4816
acceptat	-11.4816
▁Iubire	-11.4817
▁Bu	-11.4818
▁ateriz	-11.482
🦋🍃	-11.4821
▁imaginez	-11.4822
▁emoţionată	-11.4828
▁artistul	-11.4828
▁sculptat	-11.4837
șina	-11.4837
▁☁️🌧️	-11.4841
▁🍕🧀😋	-11.4841
🪄✨	-11.4841
hu	-11.4846
▁🎤🎶	-11.4847
▁🐘🐘	-11.4847
▁Ur	-11.4849
💆‍♀️💕	-11.4849
▁impecabilă	-11.4851
▁fixarea	-11.4851
▁sărat	-11.4851
▁defines	-11.4852
▁îmbrăcat	-11.4852
🌷💐	-11.4857
🌅💫	-11.4857
👶🏼	-11.4858
🌿🌿🌿	-11.4859
▁ambianţa	-11.4859
▁Far	-11.486
🐾🐾	-11.4861
▁🔩🔧	-11.4863
gon	-11.4865
▁recentă	-11.4865
▁🌻🌻🌻	-11.4868
▁👨‍👧	-11.4868
De	-11.4869
🔥💪🏼	-11.4875
▁🌸🌼🌺	-11.4878
▁topite	-11.4879
▁🎨🌅	-11.488
🔊💥	-11.488
▁🐶🐱	-11.4881
🥊💥	-11.4881
Dream	-11.4884
▁coduri	-11.4885
▁☕🌧️	-11.4889
💨🆒	-11.4889
▁tentaţi	-11.4891
▁proaspata	-11.4891
▁nesiguri	-11.4892
pit	-11.4893
🍱🍣	-11.4896
▁👨‍👩‍👧‍👧	-11.4897
🧘✨	-11.4899
▁iepuraşi	-11.4902
🌶️🍛	-11.4903
🏃‍♀️💨	-11.4909
▁scris	-11.4911
▁Sun	-11.4913
▁diferită	-11.4915
▁anima	-11.4916
🏝️🌅	-11.4916
🤝😊	-11.4917
▁🍫😍	-11.4919
▁Străluci	-11.4921
▁distr	-11.4924
ripioare	-11.4924
▁vehicule	-11.4925
▁🇺🇸	-11.4926
💄👠	-11.4928
turile	-11.4929
💡🌆	-11.4931
👌😍	-11.4935
🤗🌟	-11.4935
▁urca	-11.4935
▁🛣️🚗	-11.4943
▁ingineriei	-11.4944
▁priveşt	-11.4946
ișuri	-11.4948
▁simfonii	-11.4954
▁🏚️	-11.4957
▁nebună	-11.4957
▁🌊🐬	-11.4958
▁mediile	-11.4962
🎵😌	-11.4965
▁camerei	-11.4965
▁adunăril	-11.4966
Excitat	-11.4966
🍪🔥	-11.497
🌟🥳	-11.4972
😍🤗	-11.4974
▁🌲🌿	-11.4975
▁gener	-11.498
000	-11.4982
🎁❤️	-11.4983
▁🚲🌳	-11.4984
😴❤️	-11.4986
▁răspândi	-11.4987
▁furtunii	-11.4989
▁Imagina	-11.4989
▁legendare	-11.4997
💥😮	-11.5001
▁🌇🌅	-11.5003
Crafting	-11.5014
▁⛷️	-11.5015
▁analiza	-11.5019
▁determinarea	-11.5021
▁perfecţiunea	-11.5021
▁capse	-11.5029
▁manifestă	-11.5032
🌳💚	-11.5034
🔧🔩🔨	-11.5039
ous	-11.504
50	-11.5042
☕🥐	-11.5047
dge	-11.5047
🎨💥🌈	-11.5047
💕🎉	-11.5048
▁ocupă	-11.5051
▁🎉🥳	-11.5053
☮️😌	-11.5053
▁🌸💖	-11.5053
Duminică	-11.5054
▁spiritualitatea	-11.5054
▁🌴☀️	-11.5056
▁dormit	-11.5059
▁marche	-11.5059
▁⛰️🚶‍♀️	-11.5063
🌊💨	-11.5066
▁🐨🌿	-11.507
🍜🥘	-11.507
🧥👢	-11.5071
▁🌆🗺️	-11.5075
👧🏼	-11.5076
▁socială	-11.5079
▁respirabil	-11.508
ierii	-11.5085
😊🌻	-11.5085
▁❄️❤️	-11.5086
▁minima	-11.5089
▁accidentate	-11.5096
👏💪	-11.5097
▁🏃‍♀️💨	-11.5099
💨🚗	-11.5101
🌙💤	-11.5102
▁asigur	-11.5107
🦚✨	-11.5108
▁Șurubelnițe	-11.511
▁calme	-11.5111
🕰️❤️	-11.5115
🍳🔥	-11.5116
▁reaminti	-11.5116
▁lupt	-11.5117
🌿🌾	-11.5124
🧠🌟	-11.5124
▁angajare	-11.5126
🌞🍃	-11.5132
▁🐰	-11.5132
🧐💭	-11.5133
▁leneşi	-11.5142
▁🏞️🌄	-11.5144
▁🏀👥	-11.5148
▁fine	-11.5148
🌻🌈	-11.5156
🗺️🧭	-11.5157
🔨🛠️	-11.5158
▁suflat	-11.5159
🌮💃	-11.5163
▁🏖️🌊☀️	-11.5163
▁Găsit	-11.5167
🏆🙌	-11.5168
▁🏢💻	-11.5169
▁🐼💕	-11.5174
▁Proiecte	-11.5175
☀️🌻	-11.5176
🤝🌟	-11.5181
🍟😋	-11.5183
▁🎶💃	-11.5183
▁🏄‍♂️	-11.5185
▁Ju	-11.5188
▁ecosisteme	-11.5189
💃🎤	-11.5199
🌟🥰	-11.5202
▁pensulei	-11.5202
💥🎯	-11.5204
▁🥧	-11.5211
enii	-11.5216
▁exprimând	-11.5218
🌅🌸	-11.5227
👟💨	-11.5228
▁Um	-11.5229
ph	-11.5248
▁insta	-11.525
🥇🏆	-11.5251
▁Nil	-11.5252
🪴💚	-11.5252
▁Cla	-11.5256
▁campioni	-11.5259
🌲🏕️	-11.5261
▁salută	-11.5262
▁intim	-11.5264
▁Sesiun	-11.527
🔥🌶️	-11.527
👖✨	-11.5272
😍🤤	-11.5272
kat	-11.5273
▁câștig	-11.5273
▁nopții	-11.5277
▁scenei	-11.5281
🌮🍣	-11.5288
▁Umi	-11.5295
rid	-11.5298
😞💔	-11.53
▁largi	-11.5301
prob	-11.5313
▁😊🎉	-11.5315
▁ras	-11.5319
▁câştig	-11.5326
▁🙏🌟	-11.5328
▁dezlănțuie	-11.5331
💜🌸	-11.5333
▁traies	-11.5339
▁Pulover	-11.534
🦁🦁	-11.5342
🏠💨	-11.5349
▁🤞	-11.5352
▁greşi	-11.5354
▁👸	-11.5354
▁privind	-11.5357
😍😌	-11.5364
💚🌱	-11.5368
🌿💧	-11.5383
▁cânt	-11.5384
rma	-11.5394
▁🏍️🛣️💨	-11.5399
▁trecere	-11.54
▁🌅☕	-11.5403
▁Experiment	-11.5404
▁Folosi	-11.5421
🎨👁️	-11.5422
▁navighe	-11.5427
coperire	-11.543
🔧💼	-11.5431
💡🔍	-11.5431
🌼😍	-11.5435
▁partid	-11.5436
▁formare	-11.5449
▁🏎️🔥	-11.5454
▁pastel	-11.5456
▁echilibr	-11.5457
▁crime	-11.5468
🦋😍	-11.5472
țional	-11.5473
▁bl	-11.5475
tins	-11.5478
rob	-11.5483
🖌️🌌	-11.5486
🍽️👌	-11.5486
▁rata	-11.5494
▁🦚	-11.55
▁🚦	-11.55
👩🏻‍💼	-11.5504
▁😊😌	-11.5507
▁🏢✨	-11.5519
▁uimi	-11.5521
▁servire	-11.5523
🌅🤩	-11.5526
😌🏡	-11.5532
spiraţia	-11.5542
▁primeasc	-11.5544
▁Micu	-11.5556
▁🍲🌶️	-11.5557
▁ţestoasel	-11.5564
▁triumfuri	-11.557
▁🧚‍♀️	-11.5572
⛩️🎎	-11.5574
▁🎵💃	-11.5575
⛷️🌨️	-11.5577
▁inca	-11.5577
🏰🗼	-11.5578
🎉😆	-11.5579
▁Plaj	-11.5586
▁cireşi	-11.559
▁comanda	-11.5594
lock	-11.5601
▁cânta	-11.5608
🏰🔍	-11.5611
😍😁	-11.5622
▁⛄❄️	-11.5637
▁🎼	-11.5645
💥🛠️	-11.5647
▁coloane	-11.5652
▁Jachet	-11.5652
🌸🌞	-11.5654
bilitate	-11.5662
😱💥	-11.5663
▁Urmăr	-11.5679
▁efectua	-11.5681
🌶️🧂	-11.5685
▁Alătura	-11.5688
💡🌍	-11.5694
🍲🍛	-11.5705
🕺🏼	-11.5711
🏖️☀️	-11.5725
cile	-11.5728
🏯🎎	-11.5739
▁dubl	-11.5739
▁coastere	-11.574
▁💻👨‍💻	-11.5741
💫📸	-11.5745
▁înţelegere	-11.5748
tion	-11.5761
▁🍕❤️	-11.5774
▁înţeleg	-11.5781
▁📏📐	-11.5783
🌿🦋	-11.579
💆‍♀️😌	-11.5791
▁vehiculul	-11.5791
🏄‍♂️🏄‍♀️	-11.5809
🕺💥	-11.581
🌱💦	-11.5825
🌳🧺	-11.584
▁20	-11.5846
🌷🌳	-11.5849
🌬️☀️	-11.5859
📖❤️	-11.5864
▁accesoriu	-11.5864
▁dispozitive	-11.5865
🌈😃	-11.5866
💭🕰️	-11.5868
🎨💖	-11.5869
ff	-11.5872
▁🏙️🖌️	-11.5872
▁împărtășit	-11.5874
👗❤️	-11.588
▁☀️💨	-11.5884
❄️🌃	-11.5884
▁adăugat	-11.5895
🌅🏝️	-11.5899
▁leneş	-11.5899
🗺️🌅	-11.5905
▁pregat	-11.5908
🌊🏊‍♂️	-11.5926
🔩🛠️	-11.5934
▁👧👧	-11.5945
▁curăţa	-11.5955
▁dezvoltă	-11.5956
▁curajo	-11.5959
▁restaurante	-11.5981
▁Cunoscu	-11.5985
👥💥	-11.5985
▁activă	-11.5986
▁confrunt	-11.599
▁⛪✨	-11.6015
✨🏗️	-11.6017
🕌🏰	-11.6019
▁🔨💪	-11.6045
▁Proiect	-11.605
👌💪	-11.6065
▁🧘‍♀️✨	-11.607
🤙🏼	-11.607
🏰🤩	-11.6074
▁umplutur	-11.6086
▁Căţeluş	-11.6088
loc	-11.6089
apă	-11.609
dora	-11.6095
▁😍💕	-11.6097
chide	-11.6097
💗😊	-11.61
▁ferm	-11.6104
▁insul	-11.6104
🌙🔥	-11.612
▁punând	-11.6125
con	-11.6154
▁🎨💭	-11.6163
▁buzunare	-11.6163
🏗️✨	-11.6164
▁aventur	-11.6175
🌀😌	-11.6184
▁prosper	-11.62
▁subiect	-11.6206
▁țin	-11.6209
ţionare	-11.621
💡🎓	-11.6215
🏰🕰️	-11.6215
🏰🌲	-11.6222
erăstrăul	-11.6228
☀️☁️	-11.623
▁formal	-11.6235
🌨️⛄	-11.6243
▁scri	-11.6245
▁👩‍🍳🍽️	-11.6245
🌿💐	-11.6248
👑🦁	-11.625
▁artisti	-11.626
🦾💪	-11.6283
responsabilitate	-11.6294
▁Adăug	-11.6296
▁Intra	-11.6303
👵🏼	-11.6304
▁comunic	-11.6319
🆕✨	-11.6321
rab	-11.6323
▁vrăjitor	-11.6323
💑❤️	-11.6327
▁verifica	-11.6329
😋🧀	-11.633
🚗❤️	-11.6334
▁planific	-11.6338
▁pri	-11.6347
▁festivalul	-11.6349
🥘🌶️	-11.6362
olog	-11.6362
🌺🏵️	-11.6363
pant	-11.6365
🚀🌈	-11.6369
👩‍🎨👨‍🎨	-11.637
▁Fac	-11.6372
▁cunoaşte	-11.6373
▁indic	-11.638
▁înţelept	-11.638
▁capsul	-11.6382
▁evoc	-11.6382
▁destinaţi	-11.6384
▁scap	-11.6401
▁hol	-11.6404
👊🏽	-11.6405
🌸🎶	-11.6413
▁mental	-11.6419
▁înnebun	-11.642
▁inova	-11.6421
ball	-11.6425
acks	-11.6429
▁simpl	-11.643
▁conversaţi	-11.6434
▁Recunoscăto	-11.6437
▁Flaming	-11.6438
▁produs	-11.6444
▁Mătuș	-11.6445
▁uriaş	-11.6446
▁trupe	-11.6452
▁infinit	-11.6456
▁necesar	-11.6457
▁dificil	-11.6465
🌸🕊️	-11.6469
▁învăț	-11.6477
stii	-11.6481
▁Mulţum	-11.6481
▁livr	-11.6486
▁amprent	-11.6489
▁amplific	-11.6492
▁intensitate	-11.6495
🐸	-11.6495
▁is	-11.6498
🦦	-11.6506
▁satisfacţi	-11.6506
▁🌸🌸	-11.6507
3	-11.6507
nger	-11.6508
👵👴	-11.6508
(	-11.6509
toarce	-11.6509
exist	-11.651
cis	-11.651
Inim	-11.651
▁marc	-11.6511
gura	-11.6511
rapid	-11.6513
▁prezen	-11.6518
timp	-11.652
🛠️✂️	-11.6523
▁protector	-11.6526
▁stiv	-11.6527
jos	-11.6527
🏃‍♀️🏃‍♂️	-11.6527
▁hran	-11.6528
▁coaste	-11.6528
făşurat	-11.6534
🛣️🌞	-11.6536
▁neclintit	-11.6539
▁şcoal	-11.6539
🥵💦	-11.654
▁privelist	-11.654
▁vieti	-11.6544
foodie	-11.6545
onal	-11.6545
▁vacanț	-11.6548
▁șurubelniț	-11.6549
▁recunoştinţ	-11.6549
▁brânz	-11.655
▁poart	-11.6551
Nu	-11.6553
play	-11.6553
shing	-11.6555
▁vizitator	-11.6558
▁Satisfac	-11.656
▁deşert	-11.656
▁emblematic	-11.6561
▁mexican	-11.6561
▁prăji	-11.6561
▁înţelepciun	-11.6566
▁obișnuit	-11.6567
▁lenes	-11.6567
▁rețet	-11.6569
▁muntoas	-11.6569
▁execut	-11.6571
▁abandon	-11.6573
▁valori	-11.6575
▁neașteptat	-11.6576
▁grijuli	-11.6576
▁suport	-11.6577
▁prefer	-11.6578
▁trunchiu	-11.658
▁urmez	-11.6583
ress	-11.6584
▁min	-11.6585
▁norme	-11.6587
▁hom	-11.6587
▁montan	-11.6587
🏙️🏢	-11.659
▁salvez	-11.659
▁primitor	-11.6593
▁vultur	-11.6594
▁răspuns	-11.6596
▁trib	-11.6596
▁strigă	-11.6597
▁Prăji	-11.6601
▁distrez	-11.6602
▁vizibil	-11.6606
▁explica	-11.6608
▁Prezen	-11.661
▁leagă	-11.6617
▁rămâ	-11.6618
❄️🌡️	-11.662
💭💼	-11.6623
▁🏀🏀	-11.6624
⚽🏆	-11.6626
▁Ţine	-11.6627
▁bra	-11.6628
▁reducere	-11.6629
▁🏥💉	-11.663
▁domeniu	-11.6631
vizit	-11.6632
▁Jurnali	-11.6632
▁declara	-11.6632
▁Din	-11.6634
🏎	-11.6636
hn	-11.6637
▁clati	-11.6637
▁impresi	-11.6641
▁profit	-11.6642
💇‍♂️	-11.6644
box	-11.6644
💊💪	-11.6646
▁umor	-11.6646
▁enerva	-11.6646
▁Tra	-11.6646
▁Delfin	-11.6646
ulțumesc	-11.6646
✍	-11.6647
fluent	-11.6647
fârşit	-11.6647
⛷	-11.6648
ământ	-11.6648
↔	-11.6648
⛩	-11.6648
⛱	-11.6648
▁David	-11.6649
▁străpun	-11.665
food	-11.665
👈	-11.665
▁răcori	-11.6651
stick	-11.6651
▁puf	-11.6651
urățare	-11.6652
🇳🇱	-11.6652
▁Delici	-11.6652
▁înălţ	-11.6652
ușă	-11.6652
iteratur	-11.6652
▁camufla	-11.6652
🤹	-11.6652
ântân	-11.6652
▁Simţ	-11.6653
🇮	-11.6653
😽	-11.6653
🇨	-11.6653
▁restaur	-11.6653
🇦	-11.6653
vertisment	-11.6653
ilități	-11.6653
🇱	-11.6653
🤦	-11.6653
👮	-11.6653
cozy	-11.6653
▁rebel	-11.6653
🦍	-11.6653
🕗	-11.6653
🆔	-11.6653
😛	-11.6653
🚃	-11.6653
🚠	-11.6653
🤎	-11.6653
🦬	-11.6653
⏬	-11.6653
▁ucigaş	-11.6653
▁încapsul	-11.6653
🎦	-11.6653
🔠	-11.6653
😏	-11.6653
😑	-11.6653
🥯	-11.6653
🦗	-11.6653
forward	-11.6653
gricultur	-11.6653
păşesc	-11.6653
terrain	-11.6653
▁Aştept	-11.6653
▁Bambusul	-11.6653
▁Caracatiţ	-11.6653
▁Corali	-11.6653
▁Curcubeu	-11.6653
▁Decapotabil	-11.6653
▁Diversitate	-11.6653
▁Explozi	-11.6653
▁FTW	-11.6653
▁Harley	-11.6653
▁Lavandă	-11.6653
▁Medici	-11.6653
▁Mexicul	-11.6653
▁Minunat	-11.6653
▁Nieces	-11.6653
▁Outback	-11.6653
▁Piramid	-11.6653
▁Pothos	-11.6653
▁Producător	-11.6653
▁Purificator	-11.6653
▁Puternicul	-11.6653
▁Părinţii	-11.6653
▁Relaxându	-11.6653
▁Skateboarding	-11.6653
▁Ușor	-11.6653
▁Whi	-11.6653
▁Woah	-11.6653
▁Wonderland	-11.6653
▁Zeeland	-11.6653
▁abundă	-11.6653
▁agitaţie	-11.6653
▁ameliora	-11.6653
▁apetisant	-11.6653
▁aplicaţi	-11.6653
▁argint	-11.6653
▁arheologic	-11.6653
▁aromaterapie	-11.6653
▁ascutit	-11.6653
▁avocat	-11.6653
▁bebeluş	-11.6653
▁biblioteca	-11.6653
▁bineveniţi	-11.6653
▁bogăţi	-11.6653
▁bolnave	-11.6653
▁bomboane	-11.6653
▁bowling	-11.6653
▁busuioc	-11.6653
▁bârf	-11.6653
▁bătrân	-11.6653
▁cardigan	-11.6653
▁carnivor	-11.6653
▁chiftele	-11.6653
▁coborâșuri	-11.6653
▁comentari	-11.6653
▁compasională	-11.6653
▁compasiunii	-11.6653
▁conexiuni	-11.6653
▁contagioasă	-11.6653
▁corvoad	-11.6653
▁descurca	-11.6653
▁devastat	-11.6653
▁dezordine	-11.6653
▁dimineți	-11.6653
▁educaţional	-11.6653
▁entuziaşti	-11.6653
▁exerciţii	-11.6653
▁experiente	-11.6653
▁firimituri	-11.6653
▁foșnet	-11.6653
▁frumuseti	-11.6653
▁ghiveci	-11.6653
▁icoane	-11.6653
▁impreuna	-11.6653
▁incomensurabil	-11.6653
▁incontrolabil	-11.6653
▁infecţioasă	-11.6653
▁insorit	-11.6653
▁instalaţii	-11.6653
▁interioara	-11.6653
▁intermitent	-11.6653
▁invizibil	-11.6653
▁justiţie	-11.6653
▁lipseşte	-11.6653
▁multitasking	-11.6653
▁muscular	-11.6653
▁mângâia	-11.6653
▁măgulitoare	-11.6653
▁mătuşa	-11.6653
▁nemărginită	-11.6653
▁neprețuit	-11.6653
▁olimpic	-11.6653
▁ordonat	-11.6653
▁persistă	-11.6653
▁personificat	-11.6653
▁piloni	-11.6653
▁pizzei	-11.6653
▁plămânii	-11.6653
▁prospețime	-11.6653
▁protectoare	-11.6653
▁protecţie	-11.6653
▁record	-11.6653
▁regulă	-11.6653
▁răceşte	-11.6653
▁serenad	-11.6653
▁sonerie	-11.6653
▁sufrageria	-11.6653
▁suspans	-11.6653
▁sârguin	-11.6653
▁sănătoşi	-11.6653
▁sănătăţii	-11.6653
▁tesatura	-11.6653
▁toamnei	-11.6653
▁tridimensionale	-11.6653
▁tridimensională	-11.6653
▁trimmer	-11.6653
▁vacuum	-11.6653
▁verişoar	-11.6653
▁versiun	-11.6653
▁vertical	-11.6653
▁veșnic	-11.6653
▁volanul	-11.6653
▁vreodata	-11.6653
▁vulnerabile	-11.6653
▁waddl	-11.6653
▁zoologică	-11.6653
▁zâmbeşti	-11.6653
▁zân	-11.6653
▁împrăști	-11.6653
▁înconjoară	-11.6653
▁înălțate	-11.6653
▁Şco	-11.6653
❕	-11.6653
🇯🇲	-11.6653
🌘	-11.6653
🏦	-11.6653
🏴󠁧󠁢󠁥󠁮󠁧󠁿	-11.6653
👨‍🦳	-11.6653
💆🏻‍♂️	-11.6653
🔚	-11.6653
🔣	-11.6653
😐	-11.6653
🚽	-11.6653
🤭	-11.6653
🦂	-11.6653
🦃	-11.6653
🦛	-11.6653
🧑‍🦰	-11.6653
🪥	-11.6653
🪲	-11.6653
Penguin	-11.6653
▁Ridică	-11.6653
▁abundenț	-11.6653
▁acuarele	-11.6653
▁atenția	-11.6653
▁bogăți	-11.6653
▁chitară	-11.6653
▁clopoţei	-11.6653
▁curcubee	-11.6653
▁curioşi	-11.6653
▁căţeluş	-11.6653
▁dezvelind	-11.6653
▁educă	-11.6653
▁longevitatea	-11.6653
▁moschei	-11.6653
▁nenumarate	-11.6653
▁nopti	-11.6653
▁piulițe	-11.6653
▁ploua	-11.6653
▁plănui	-11.6653
▁pricepe	-11.6653
▁pătrunde	-11.6653
▁realiste	-11.6653
▁relicve	-11.6653
▁revitaliz	-11.6653
▁rupţi	-11.6653
▁răcoare	-11.6653
▁situații	-11.6653
▁spiky	-11.6653
▁toxine	-11.6653
▁vibranţi	-11.6653
▁Încântătoare	-11.6653
▁împrumut	-11.6653
▁🍌🍓🥛	-11.6653
⬜	-11.6653
🍠	-11.6653
🐹	-11.6653
👩🏼‍	-11.6653
🤧	-11.6653
🤰	-11.6653
🪅	-11.6653
ispari	-11.6653
▁benzinări	-11.6653
▁coloraţi	-11.6653
▁minunându	-11.6653
▁miscari	-11.6653
▁tachin	-11.6653
▁umăr	-11.6653
▁îndesat	-11.6653
▁șanț	-11.6653
🇬🇧	-11.6653
👇	-11.6653
▁măsline	-11.6653
▁strategii	-11.6653
🧯	-11.6653
▁asemănăto	-11.6653
▁instalați	-11.6653
▁teritorii	-11.6653
▁termostat	-11.6653
▁Învălui	-11.6653
▁🧑‍🏫	-11.6653
😖	-11.6653
amărui	-11.6653
▁depăşi	-11.6653
▁maimuţ	-11.6653
▁războinic	-11.6653
▁sălbăticiuni	-11.6653
▁umilitoare	-11.6653
🇵🇹	-11.6653
▁asistenţ	-11.6653
▁clești	-11.6653
▁mănuşi	-11.6653
▁Lily	-11.6653
▁foame	-11.6653
▁Elveția	-11.6653
▁sacru	-11.6653
▁unghiuri	-11.6653
▁deconecta	-11.6653
▁bob	-11.6653
▁cumpărători	-11.6653
▁căsător	-11.6653
▁maiestuoasa	-11.6653
▁mizeri	-11.6653
comfortabil	-11.6653
▁👩‍🔧	-11.6653
🍣🍣🍣	-11.6653
▁boem	-11.6653
▁cotitur	-11.6653
ilieci	-11.6653
▁Sunny	-11.6653
▁management	-11.6653
▁omenirii	-11.6653
▁Imbratiseaza	-11.6653
▁cleşte	-11.6653
▁grăb	-11.6653
🤦‍♀️	-11.6653
▁Unchii	-11.6653
▁biodiversitate	-11.6653
▁subțire	-11.6653
▁tastatură	-11.6653
trăgând	-11.6653
▁rezistenţi	-11.6653
▁combustibil	-11.6653
▁infecţios	-11.6653
▁rezistenț	-11.6653
mores	-11.6653
▁droga	-11.6653
▁obligatori	-11.6653
▁ieși	-11.6653
▁păp	-11.6653
👙🕶️🌊	-11.6653
▁distracti	-11.6653
▁priză	-11.6653
▁detaliat	-11.6653
▁mătăsoase	-11.6653
▁marcaje	-11.6653
🧜‍♂️	-11.6653
▁meditativ	-11.6653
▁expansive	-11.6653
▁crav	-11.6653
▁textură	-11.6653
▁anunţ	-11.6653
▁🇮🇹🍕🍝	-11.6653
▁Hoodies	-11.6653
▁restabil	-11.6653
💃🏽🕺🏽	-11.6653
Violet	-11.6653
▁☔🐱🐶	-11.6653
▁usor	-11.6653
way	-11.6653
▁Bowl	-11.6653
▁observaţie	-11.6653
▁Desen	-11.6654
🙆‍♂️	-11.6654
▁difuzoare	-11.6654
Beach	-11.6654
▶️	-11.6654
Surioar	-11.6654
▁ingeniozit	-11.6654
▁măturat	-11.6654
▁noroioase	-11.6654
☯️	-11.6654
⏹️	-11.6654
▁circular	-11.6654
▁Alege	-11.6654
Riding	-11.6654
▁Iepuraş	-11.6654
🤷‍♂️	-11.6654
naștere	-11.6654
▁capricios	-11.6654
▁Spl	-11.6654
▁Jack	-11.6654
▁Crispy	-11.6654
▁exclusiv	-11.6654
▁pânza	-11.6654
purpuri	-11.6654
▁revoluționar	-11.6654
▁calzi	-11.6654
▁desenat	-11.6654
▁audio	-11.6654
👩‍👩‍👧‍👧	-11.6654
▁zburând	-11.6654
▁exers	-11.6654
▁cusătur	-11.6654
solicit	-11.6654
▁nepotul	-11.6654
▁generozitate	-11.6654
▁lipicios	-11.6654
▁distrus	-11.6654
▁miniatur	-11.6654
👨‍🏭	-11.6654
▁panouri	-11.6654
▁spaţial	-11.6654
▁sarcina	-11.6654
▁Smoothies	-11.6655
▁🏂❄️🏔️	-11.6655
▁arctic	-11.6655
▁purpurii	-11.6655
▁geac	-11.6655
▁Balet	-11.6655
🧘🏻‍♀️	-11.6655
▁Paradisul	-11.6655
▁Pomp	-11.6655
▁🌩️⛈️	-11.6655
▁pernă	-11.6655
▁scoici	-11.6655
▁cinematografi	-11.6655
ough	-11.6655
▁considerare	-11.6655
▁Luaţi	-11.6655
▁Festivaluri	-11.6655
▁Raze	-11.6655
▁înțelegere	-11.6655
blare	-11.6655
▁teras	-11.6655
▁Sportiv	-11.6655
start	-11.6656
▁paine	-11.6656
riteuz	-11.6656
▁subconştient	-11.6656
▁feta	-11.6656
▁îndepărtate	-11.6656
▁🔩🪛	-11.6656
▁riscuri	-11.6656
▁cires	-11.6656
▁nebuneşti	-11.6656
▁cusut	-11.6656
▁Port	-11.6656
▁tinereţe	-11.6656
▁purificatoare	-11.6656
▁jucaus	-11.6656
Davidson	-11.6656
uguri	-11.6656
▁suge	-11.6657
▁supravieţuirii	-11.6657
▁staţiuni	-11.6657
▁Număr	-11.6657
▁agaţ	-11.6657
▁Munt	-11.6657
💪🏼👊🏼	-11.6658
▁serial	-11.6658
▁veste	-11.6658
▁☀️🌤️🌥️	-11.6658
reativitatea	-11.6658
gne	-11.6658
ountry	-11.6658
▁asteptare	-11.6658
🚦🚧	-11.6659
▁hrăneşte	-11.6659
▁exercitii	-11.6659
▁competiţi	-11.6659
▁💔😢😭	-11.6659
▁Picaturi	-11.6659
▁inginereşti	-11.6659
▁capcan	-11.6659
▁Lasa	-11.666
🧁🍪	-11.666
▁luminoasă	-11.666
▁fabric	-11.666
▁cădere	-11.666
▁👴🏻	-11.666
▁înflorire	-11.666
▁🇯🇵🤖	-11.666
▁👨‍🍳👩‍🍳	-11.666
🧘🏼‍♀️	-11.6661
▁🌈⛈️	-11.6661
🎄🎁	-11.6661
▁Jucă	-11.6661
▁🖌️🏙️	-11.6661
🍝🍷	-11.6662
▁album	-11.6662
🚶🏼‍♀️	-11.6662
▁Max	-11.6662
▁preţuieşte	-11.6662
▁reţelel	-11.6662
▁păzitori	-11.6662
▁tendințele	-11.6663
▁🏙️🏢🏗️	-11.6663
▁independenţ	-11.6663
▁perne	-11.6663
▁🗺️🏙️	-11.6663
▁dulceață	-11.6663
▁👨‍🍳🔪	-11.6664
🦘🐨	-11.6664
▁apăsare	-11.6664
🎆🎇	-11.6664
▁adaptabilitate	-11.6664
▁anime	-11.6664
▁piete	-11.6664
▁grațioase	-11.6664
▁interactive	-11.6664
▁meserii	-11.6664
▁curbat	-11.6665
⚽⚽⚽	-11.6665
▁mulţumesc	-11.6666
▁🎵🎤	-11.6666
pitalul	-11.6666
▁transpiraţi	-11.6666
▁🛍️💰	-11.6666
▁🎨🔲	-11.6667
Ride	-11.6667
▁🥶❄️	-11.6667
▁furioasă	-11.6667
▁Fly	-11.6667
▁hidratat	-11.6667
▁👩‍🍳🔪	-11.6668
▁gheare	-11.6668
▁Surf	-11.6668
▁scutit	-11.6669
▁Petrecerea	-11.6669
▁SF	-11.6669
▁limpezeşte	-11.6669
▁curajoşi	-11.667
▁feline	-11.667
▁anti	-11.667
▁🌧️📚☕	-11.667
⛷️🏂	-11.667
▁🙏🏼❤️	-11.667
▁tund	-11.667
telul	-11.6671
▁🔧⚙️	-11.6671
▁declaraţii	-11.6671
niste	-11.6671
▁farse	-11.6671
▁dense	-11.6672
👋🏻	-11.6672
rafting	-11.6672
▁latte	-11.6672
🗣️👂	-11.6672
▁topească	-11.6673
👩🏻‍🎨	-11.6673
▁Weekend	-11.6673
▁cafeina	-11.6673
▁elicopter	-11.6673
▁presiune	-11.6673
▁8	-11.6673
▁Sari	-11.6673
▁🌄🏔️	-11.6674
▁nara	-11.6675
▁🙏💗	-11.6675
▁desfac	-11.6676
▁🔨🔨	-11.6676
▁🏰⚔️	-11.6676
▁☀️🌤️💙	-11.6677
▁📷📸	-11.6677
🌈🌼	-11.6678
▁Adormi	-11.6679
✨👏	-11.6679
🎧🎵	-11.6679
▁Unite	-11.668
🥦🥩	-11.668
▁realizările	-11.668
🏂🎿	-11.6682
👸🏻	-11.6682
▁atac	-11.6682
▁dolofane	-11.6683
▁neconvenționale	-11.6683
▁narative	-11.6684
🌆🌉	-11.6684
▁Grand	-11.6684
▁vorbim	-11.6684
▁serioase	-11.6684
🌲🪵	-11.6684
▁dres	-11.6685
▁Culo	-11.6685
▁ăia	-11.6686
▁colt	-11.6686
▁apără	-11.6686
▁ascul	-11.6686
▁tâmplărie	-11.6686
▁şterge	-11.6687
▁fiestas	-11.6687
▁tunetului	-11.6687
ador	-11.6688
▁🍽️👨‍🍳	-11.6688
▁🔥🍳	-11.6689
▁👫🤝	-11.6689
▁eliberat	-11.669
▁⛪🏰	-11.669
▁✨👗	-11.6692
12	-11.6692
▁subţir	-11.6692
▁știa	-11.6693
⛱️🌴	-11.6693
▁🏰🗿	-11.6693
▁antrenez	-11.6694
▁Mândr	-11.6694
▁🍃💨	-11.6695
🏼❤️	-11.6695
▁stâlpi	-11.6696
▁căzut	-11.6696
▁🍃🌿	-11.6696
▁zb	-11.6696
⚙️🛠️	-11.6697
▁norocului	-11.6697
iciodată	-11.6697
mily	-11.6698
▁construiește	-11.6699
▁☀️🔥💦	-11.6699
▁✈️🗺️	-11.6699
▁🐨🌳	-11.67
▁🎨🧩	-11.67
▁curgere	-11.67
▁🏖️🏠	-11.6701
▁ajutând	-11.6701
▁patrimoniului	-11.6701
▁🌿💜😌	-11.6701
thr	-11.6702
▁casnice	-11.6703
▁atletice	-11.6703
▁urmăriți	-11.6706
▁LBD	-11.6707
▁unghiular	-11.6707
▁infuzat	-11.6708
▁🏙️🖌️🌈	-11.6708
▁🌵💪🏼	-11.6708
🏖️🍦	-11.6709
▁grădinari	-11.6709
▁turcoazului	-11.671
▁răspunsul	-11.671
mănă	-11.6711
▁Norvegia	-11.6713
▁programare	-11.6714
▁stabilit	-11.6714
▁🏙️📈	-11.6715
▁💪🏋️‍♀️🔥	-11.6716
▁armonioasă	-11.6717
▁vrajă	-11.6717
🏞️🌸	-11.6719
târzi	-11.672
▁aliniat	-11.672
▁🍰🍫	-11.6721
▁echilibrat	-11.6721
▁claritate	-11.6722
▁întrebări	-11.6723
▁piciorul	-11.6723
▁⚽🌍	-11.6723
▁pricepute	-11.6723
▁🌿✂️	-11.6727
▁⛪🤩	-11.6728
▁recompensat	-11.6729
▁inspire	-11.673
▁muzeul	-11.6731
▁traditii	-11.6733
▁romantismul	-11.6734
🏝️😍	-11.6736
▁potenţialul	-11.6736
▁Leul	-11.6736
▁artizanal	-11.6736
▁dalt	-11.6737
▁ritualuri	-11.6738
▁armoniz	-11.6739
orbind	-11.6739
▁laud	-11.6739
▁încălzitor	-11.6741
▁Seren	-11.6741
▁exploda	-11.6741
▁stresantă	-11.6742
▁Plimbare	-11.6742
▁[	-11.6742
▁veşnică	-11.6742
▁înnorată	-11.6742
▁dedică	-11.6743
▁precisă	-11.6743
▁abundentă	-11.6743
▁urmeze	-11.6743
▁aplicație	-11.6744
▁radiantă	-11.6744
▁🏎💨	-11.6744
▁cutii	-11.6745
▁🐘💖	-11.6746
▁🐶😍	-11.6746
găteşte	-11.6746
▁punte	-11.6747
💉🩺	-11.6748
▁recuperare	-11.6749
▁pasiunile	-11.675
▁imaginativ	-11.6752
▁dormitor	-11.6753
▁🏃‍♀️🌅	-11.6754
🏆👏	-11.6755
▁orhideelor	-11.6756
👕❄️	-11.6756
▁Cheer	-11.6757
▁🏰🌆	-11.6759
▁umbrele	-11.6759
uritoare	-11.676
▁Artist	-11.6762
🧀🤤	-11.6763
🏕️🏞️	-11.6763
💦🏊‍♂️	-11.6763
✨🤞	-11.6765
▁utilitate	-11.6765
▁independente	-11.6766
🪚🔩	-11.6766
▁aleg	-11.6767
🥘👩‍🍳	-11.6768
▁comp	-11.6768
▁neclintită	-11.6768
▁şcoală	-11.6768
▁hrană	-11.6768
🍦🍨	-11.6769
▁inspirație	-11.6769
😂😆	-11.6771
▁☕🏠	-11.6773
▁folosindu	-11.6774
▁inundat	-11.6774
👟🏋️‍♀️	-11.6777
▁🇳🇿	-11.6777
▁🍎🥧	-11.6778
▁picnicuri	-11.6779
🔋💯	-11.6779
▁visat	-11.678
▁gândi	-11.678
▁🎨🔮	-11.678
▁protectori	-11.6781
▁înfăţişare	-11.6782
▁haotice	-11.6782
▁🏡🌳🌻	-11.6783
▁favorite	-11.6784
▁excelente	-11.6785
▁amețit	-11.6785
▁🏖️🏰	-11.6786
▁🐬🎉	-11.6786
▁mut	-11.6786
rbore	-11.6786
▁Conduce	-11.6786
▁personajele	-11.6787
🔥🍞	-11.6788
▁milio	-11.6788
💭🌠	-11.6789
pot	-11.6789
▁dip	-11.679
▁👴👵❤️	-11.679
▁snow	-11.6791
▁agită	-11.6792
▁îndreptat	-11.6793
▁Rulo	-11.6794
▁statui	-11.6794
📚💭	-11.6795
▁nuante	-11.6795
▁bâzâie	-11.6796
🌙🌌	-11.6797
▁forare	-11.6797
▁Petrece	-11.6799
▁împrăştie	-11.68
▁sentimentelor	-11.68
▁amplificat	-11.6802
🌮🥑	-11.6802
▁catifelate	-11.6804
mişcat	-11.6806
▁pedal	-11.6807
▁stive	-11.6811
🥰🐾	-11.6812
▁locali	-11.6813
▁🐸	-11.6813
▁expresivă	-11.6814
▁emoțională	-11.6814
▁🌴🏝️	-11.6818
▁şansă	-11.682
▁🏖️🌊🌴	-11.682
Do	-11.682
▁întorci	-11.6824
▁🛠️💥	-11.6824
🗣️🌍	-11.6825
🚀🌎	-11.6827
▁tehnice	-11.6827
🍕🍝	-11.6827
▁🏀🤝	-11.6831
▁🎨🌈✨	-11.6832
▁amestecate	-11.6832
▁fotbalului	-11.6835
călzește	-11.6835
▁ascultat	-11.6837
🌳🌤️	-11.6838
👨‍👩‍👧‍👦💖	-11.6839
👗🔥	-11.684
▁ceramice	-11.6842
👨‍💼👩‍💼	-11.6844
▁enervante	-11.6844
🤗🌞	-11.6845
▁planurile	-11.6845
▁🏄‍♂️🌊🤙	-11.6845
▁electrizante	-11.6847
👧🧒	-11.6847
▁sună	-11.6847
▁👨‍👦‍👦	-11.6849
▁camp	-11.6849
try	-11.6851
▁☀️🌻💛	-11.6853
▁Is	-11.6856
▁👶🏻	-11.6856
😋😍	-11.6858
💼🛠️	-11.6863
▁oprit	-11.6865
👩‍🎨🎨	-11.687
▁flexibilitatea	-11.6871
▁ritmică	-11.6871
▁Trata	-11.6872
🕶️😎	-11.6873
▁❄️🌨️❄️	-11.6873
red	-11.6875
▁Pere	-11.6876
▁norocul	-11.6876
▁🚴	-11.6876
▁turneu	-11.6877
▁croi	-11.6878
Recunoscător	-11.6878
▁norilor	-11.6879
💚🌳	-11.688
▁divine	-11.688
❄️🌊	-11.688
▁🇪🇬	-11.6882
💦🍹	-11.6884
▁sportive	-11.6884
▁❄️⛄❄️	-11.6885
▁🏢💎	-11.6887
▁tavane	-11.6887
▁învârtit	-11.689
▁cluburi	-11.689
▁☕🌞	-11.6891
🧥❤️	-11.6891
▁🏐🏖️	-11.6893
▁cunoştinţele	-11.6894
💻📈	-11.6896
▁semnul	-11.6898
▁ecologică	-11.69
▁bre	-11.69
▁pană	-11.6903
▁conducător	-11.6905
▁financiare	-11.6906
▁industrie	-11.6906
▁🏍️✨	-11.6907
📚💼	-11.691
▁societatea	-11.6911
▁rufele	-11.6911
▁Meciu	-11.6914
🏞️⛺	-11.6914
❄️⛷️	-11.6916
▁rafturile	-11.6917
🍹🌞	-11.6917
▁poduri	-11.6917
▁încurajare	-11.6918
🌸👘	-11.692
▁placere	-11.6921
▁🦇	-11.6921
🛠️💡	-11.6923
▁renunţă	-11.6923
▁nepreţuită	-11.6923
▁sofisticate	-11.6924
▁lente	-11.6925
▁dinamice	-11.6926
▁🏀😱	-11.693
🥣😌	-11.6931
▁sufer	-11.6932
🚗🐞	-11.6932
▁Pol	-11.6933
▁funcţionale	-11.6943
▁credinţă	-11.6944
▁fugi	-11.6945
▁pădurilor	-11.6946
💯🎯	-11.6947
▁ruptă	-11.695
▁Fel	-11.695
🎨👩‍🎨👨‍🎨	-11.6951
▁👭💕	-11.6953
▁funcţiona	-11.6957
▁galeriei	-11.6958
▁⚽🔥	-11.6959
▁🍦🍫	-11.696
🔭✨	-11.6963
dom	-11.6967
🎾🎾	-11.6974
▁competitivă	-11.6975
▁👵🤗	-11.6975
🧘🏻‍♂️	-11.6977
riu	-11.6978
▁🐒🌳	-11.6978
🌈👚	-11.6979
❌💪	-11.6981
▁capturate	-11.6982
sau	-11.6982
💜🌈	-11.6984
▁teme	-11.6988
▁🏊‍♂️🌊	-11.6996
😅💪	-11.7001
🤪😂	-11.7006
🌙💫	-11.701
▁vrăjitori	-11.7015
⛈️🌪️	-11.7021
💥🌪️	-11.703
▁nostalgice	-11.7031
artă	-11.7032
▁🪛🔩	-11.7034
▁agili	-11.7047
▁pasionati	-11.7048
onat	-11.7054
🔮🌟	-11.7055
▁🖼️🏛️	-11.7058
▁verificat	-11.706
▁destinații	-11.7061
▁subiecte	-11.7061
▁dând	-11.7062
▁Accidente	-11.7062
▁girafe	-11.7062
▁cucerire	-11.7069
bud	-11.7074
▁învăluit	-11.7077
▁inch	-11.7089
🚀⚡	-11.7091
▁🍜🔥	-11.7092
▁romane	-11.7094
😄🙌	-11.7099
▁👩‍🍳🍽️🎨	-11.71
📚🍫	-11.7106
hei	-11.7106
▁alergător	-11.7111
regatiti	-11.7116
▁🚗💨😎	-11.712
🌾🌿	-11.7121
▁staţi	-11.7123
🤯😍	-11.7126
▁apartament	-11.7127
▁bule	-11.7131
🌱🌻	-11.7143
▁lustruit	-11.7147
▁🏰⏳	-11.7148
▁bazat	-11.7157
💨💇‍♀️	-11.7157
▁detectiv	-11.7159
📖😍	-11.7167
🌳🏕️	-11.7172
▁💜🌿✨	-11.7174
▁clasa	-11.7176
▁colţuri	-11.718
▁eliminare	-11.7183
▁prețuit	-11.7183
🍽️👩‍🍳	-11.7187
▁⚡🌧️	-11.7194
👙🌞	-11.7195
▁🎉🎓	-11.7195
uga	-11.72
bunătățește	-11.7201
▁🔥🥵	-11.7209
🏢😍	-11.721
🌕✨	-11.7211
rave	-11.7223
▁spini	-11.723
▁🏙️🌃	-11.7236
ătorul	-11.7236
▁tocat	-11.7242
▁tineri	-11.7244
trap	-11.7246
▁sisteme	-11.7248
🍿🎬	-11.7255
▁🏕️🌲	-11.7257
▁explorări	-11.7266
🏡🔥	-11.7273
terizare	-11.7275
🔨🏠	-11.7275
🚐👨‍👩‍👧‍👦	-11.7277
▁templul	-11.7277
▁🌊🏄‍♂️🤙	-11.7284
▁🌻☀️🌼	-11.7284
🌄🌌	-11.7287
▁amestecat	-11.7291
💪🌅	-11.7295
love	-11.73
🌇🌆	-11.731
▁facand	-11.7321
▁încălzire	-11.7322
🌴🏝️	-11.7326
▁🖌️🏢	-11.7333
🐟🥢	-11.7333
📜💭	-11.7333
▁Roll	-11.7341
🔮👑	-11.7344
▁hoinăreşt	-11.7346
▁sup	-11.7347
▁adunat	-11.7347
🏰⛪	-11.7362
🧘‍♂️✨	-11.7364
▁încălz	-11.7369
▁🏎️💨🏁	-11.7372
▁ecosistem	-11.7381
▁dureri	-11.7384
▁metropole	-11.7388
cuie	-11.739
▁purificat	-11.7395
▁Vizitator	-11.7402
▁răsfățare	-11.7402
🌆⚡	-11.7403
▁bufniţ	-11.7415
▁🏖️🏝️	-11.7415
👨‍⚕️❤️	-11.7422
▁😔😢	-11.7422
📖📚	-11.7426
🌷🍃	-11.7431
🌸🏯	-11.7432
😎👍	-11.7446
▁glorie	-11.7452
🔍💎	-11.7453
▁termene	-11.7455
jit	-11.7459
🏃💨	-11.7467
▁găl	-11.7469
căutători	-11.7473
🏞️❄️	-11.7478
🧘‍♀️🌸	-11.7489
day	-11.7495
▁optimism	-11.7504
▁buz	-11.7507
🧘‍♀️🙏	-11.7508
🗺️✈️	-11.7514
▁An	-11.7518
👭👫	-11.7526
▁⚡🚗	-11.7527
▁ju	-11.7538
▁Poin	-11.7548
▁🎶❤️	-11.7554
hează	-11.7562
▁pr	-11.7569
▁Cup	-11.7569
▁Dimine	-11.7578
🐟🌊	-11.7589
🌃🌉	-11.7589
🧣🍫	-11.759
nică	-11.7598
🏡☕	-11.7601
▁Mari	-11.7606
🦅✨	-11.7617
🌬️🔌	-11.7624
ding	-11.7625
🎓💼	-11.7627
mbr	-11.7642
📐📏	-11.7646
▁căuta	-11.7658
👶❤️	-11.7658
🍴💕	-11.7661
▁Bon	-11.7661
👨‍💻👩‍💻	-11.7662
prinde	-11.7662
💭🌍	-11.7687
▁🐘💭	-11.7695
📸🎉	-11.77
▁legăna	-11.7703
▁coam	-11.7708
🌞😁	-11.7709
⚡🌧️	-11.7711
▁proiectat	-11.7716
🌾🌷	-11.7728
🙏😇	-11.7728
▁Curs	-11.7738
🛠️💼	-11.7753
▁emisiuni	-11.7759
▁🍽️🍜	-11.7776
🧒👧	-11.7782
▁primeşt	-11.7787
▁🍲🔥	-11.7787
▁Respir	-11.7788
🥰🤗	-11.7795
▁🏰📚	-11.7814
✊💥	-11.7816
🍣🌸	-11.7817
▁cursuri	-11.7818
▁🌍✈️	-11.7825
tive	-11.7838
▁🏰🏞️	-11.7846
👬👫	-11.7848
induce	-11.7852
🍰😋	-11.7853
Achieve	-11.7861
etti	-11.787
nning	-11.7874
▁☀️😊	-11.788
💨💇	-11.7885
➡️☕	-11.7885
▁asigurare	-11.7887
nalul	-11.7912
ilia	-11.7916
🔥👏	-11.7934
🎢🤩	-11.7934
💉👩‍⚕️	-11.7937
🆙🔥	-11.795
🏊‍♀️🌞	-11.7956
🏊‍♀️🐠	-11.7969
▁🐾👩‍⚕️	-11.7971
landa	-11.7976
🌳🏠	-11.7977
🍦😋	-11.7982
🏆🏅	-11.7982
▁📺🎥	-11.7988
inter	-11.7993
bling	-11.8005
▁şemineul	-11.8009
❄️☃️	-11.8016
păr	-11.803
▁🏰🎨	-11.8031
▁partidul	-11.8038
🧣🧥	-11.8052
👅😋	-11.8058
💬🗣️	-11.806
❤️☺️	-11.8067
erie	-11.8067
🔬💡	-11.807
▁amestecuri	-11.807
▁credea	-11.8092
▁Călător	-11.8098
💃🕺🎵	-11.8098
✨🌟🌈	-11.8107
🎨👏	-11.8108
▁Folos	-11.8119
▁🎉💪	-11.8125
🌤️❤️	-11.8129
▁🌌✨	-11.8134
🌍🌌	-11.8146
▁întineri	-11.8146
💎👑	-11.8148
🌿🌀	-11.8161
▁Per	-11.8163
🎨😱	-11.8172
▁alină	-11.8173
👗👒	-11.8178
▁☕🔌	-11.818
🍃🪴	-11.8187
erizat	-11.8187
▁inspir	-11.82
▁☀️🌼	-11.82
▁🏎️🛣️	-11.8208
▁🌞🔥	-11.8215
▁conserva	-11.8232
▁🧘‍♀️💪	-11.8254
✈️🧳	-11.826
🌍🔝	-11.8261
▁învălui	-11.8261
✨🔭	-11.8269
😍🍫	-11.827
▁bufniţe	-11.828
🍣🥘	-11.8296
▁găti	-11.8298
▁trezind	-11.8299
🚶‍♀️🌸	-11.8303
🏋️‍♀️🏃‍♂️	-11.8331
▁🐻❄️	-11.8335
stal	-11.835
▁Aș	-11.8367
iubiţi	-11.8371
▁canaliza	-11.8383
▁🌮🔥	-11.8387
iune	-11.84
ozitatea	-11.8405
▁📚👩‍🏫	-11.8411
🐘🐾	-11.8411
▁Ben	-11.842
ner	-11.8427
▁Bat	-11.8428
▁✨💃	-11.844
▁cultivând	-11.8441
▁răsfăț	-11.8452
▁rătăcind	-11.8453
all	-11.8464
🛌☕	-11.8465
▁cucerit	-11.8466
▁apartamentul	-11.8468
🏢📈	-11.8472
🔌🔩	-11.8472
▁❄️🧣	-11.8474
▁Întâlni	-11.848
🏽‍♂️	-11.8481
▁escapad	-11.8482
▁fura	-11.8485
🌺💮	-11.8489
rog	-11.8516
▁economi	-11.852
▁îmbarcă	-11.852
▁👖😍	-11.8531
enţa	-11.8535
▁acceler	-11.8541
▁clas	-11.8551
💦☔	-11.8554
geri	-11.8554
▁afl	-11.8566
▁🎵💃🕺	-11.8573
▁Bucătar	-11.858
🏡💛	-11.8584
▁poticni	-11.8587
▁simț	-11.8594
🖼️🏛️	-11.8615
▁Flutur	-11.8618
▁minim	-11.8623
▁🏙️🗺️	-11.8625
▁🌿🌺	-11.8638
▁Zb	-11.8643
▁provoc	-11.8649
▁răni	-11.866
▁căsuţe	-11.8665
🪴🌿	-11.8669
🖌️🎶	-11.8669
▁Turn	-11.8675
🏽‍♀️	-11.8675
ves	-11.8682
Scopu	-11.8693
▁şedinţ	-11.8703
▁ingredient	-11.8705
🍚🔥	-11.8707
▁bazeaz	-11.8715
▁fin	-11.8719
▁blaz	-11.872
▁🚗🔥	-11.8729
▁navigare	-11.8732
▁Alerg	-11.8745
🍂🌳	-11.8754
▁purific	-11.8765
▁iepuraş	-11.8776
🌿🐘	-11.8789
▁remediu	-11.8798
▁element	-11.8806
▁absolvi	-11.8809
▁fug	-11.881
▁🌅❤️	-11.8814
▁subestim	-11.8824
▁🚙💨	-11.8829
🍘	-11.8832
rezul	-11.8833
▁🍣🍙	-11.8837
▁Sli	-11.8847
▁umbr	-11.8855
▁☀️😄	-11.8876
udând	-11.8878
▁show	-11.8887
▁cascad	-11.8891
▁exercit	-11.8892
▁Alunec	-11.8898
☀️🍹	-11.8901
▁accept	-11.8903
▁dedic	-11.8904
▁colecţi	-11.8905
💤☕	-11.8911
▁abilitat	-11.8928
🏗️🔨	-11.8931
🤙🏻	-11.8932
▁caracteristic	-11.8935
🍫😋	-11.8945
▁jogger	-11.8946
▁abundent	-11.8951
▁calmare	-11.8954
▁radiant	-11.8957
▁precis	-11.8958
▁organiz	-11.8964
📸🌄	-11.8965
▁plăcint	-11.8971
▁diversitate	-11.899
▁acrobaţi	-11.899
🇳🇿	-11.8996
cunoscut	-11.8999
🍕🍕🍕	-11.8999
🍎🥧	-11.9
jumping	-11.9
motivat	-11.9002
așteptat	-11.9002
▁ornament	-11.9002
▁inund	-11.9004
conducere	-11.9007
comp	-11.9007
&	-11.9008
home	-11.9009
Design	-11.9009
eficient	-11.9009
Explor	-11.9009
aproape	-11.9009
şef	-11.9009
gooey	-11.901
Vreme	-11.901
noapte	-11.9011
🧺🍉	-11.9014
ţiunea	-11.9017
😔💔	-11.9019
🌸🍯	-11.9019
🍳👩‍🍳	-11.9023
arketingul	-11.9024
▁polar	-11.9029
👨‍⚕️💉	-11.9039
▁veşnic	-11.9039
▁înnorat	-11.9039
▁societăţi	-11.904
▁strecoar	-11.9041
etele	-11.9041
▁mulțimi	-11.9043
▁cofein	-11.9045
▁diferenț	-11.9048
👖🧥	-11.9048
▁muşcătur	-11.9048
▁uşurat	-11.9049
▁înghețat	-11.9049
▁prezint	-11.905
▁contempl	-11.9055
▁reflectorizant	-11.9062
▁văzu	-11.9063
▁priceput	-11.9064
▁🏙️🏢🌆	-11.9064
▁rotund	-11.9065
▁frați	-11.9067
🌩️🌪️	-11.9067
apărare	-11.9068
▁strâmt	-11.9068
▁murdar	-11.9068
▁Excursi	-11.9068
▁turistic	-11.9069
🌠✨	-11.9069
▁terestr	-11.907
redare	-11.9072
▁recunosc	-11.9072
▁nuanț	-11.9073
▁curbe	-11.9076
🌾🌻	-11.9077
▁împrejurimi	-11.908
▁urechi	-11.908
▁Lini	-11.9082
▁luxurian	-11.9084
▁casca	-11.909
rba	-11.9094
▁Înconjur	-11.9095
🌸💚	-11.9097
▁drăgălăşenie	-11.9099
▁⚽🏟️	-11.9099
▁alini	-11.91
▁antren	-11.91
▁calc	-11.9104
▁Sculpturi	-11.9107
▁ruti	-11.911
▁Designer	-11.911
▁🐘💕	-11.9112
ontabili	-11.9113
▁turm	-11.9115
usta	-11.9116
▁Priv	-11.9117
▁liniști	-11.9117
▁hot	-11.912
▁🚐🏞️	-11.912
▁difuz	-11.912
jurnalism	-11.9121
✨✨✨	-11.9122
▁💻💡	-11.9123
▁stresant	-11.9124
poziţie	-11.9124
▁Salva	-11.9124
rişori	-11.9125
▁zâmbi	-11.9125
ăgetul	-11.9126
🎎🌸	-11.9132
▁look	-11.9134
▁congela	-11.9135
▁⏰☕	-11.9138
▁caprici	-11.9139
▁straluci	-11.9139
▁tw	-11.914
▁tendinț	-11.914
▁meticulo	-11.914
armecul	-11.914
🌽🍅	-11.9146
▁mulți	-11.9146
oştenire	-11.9147
tresat	-11.9147
✌	-11.9147
ingurătate	-11.9147
🌩	-11.9148
🗡	-11.9148
⛸	-11.9148
Învăț	-11.9148
♀	-11.9148
🌥	-11.9148
🗝	-11.9148
👁	-11.9148
▁despărţi	-11.9149
arhitectur	-11.9149
▁lichid	-11.9149
conştient	-11.915
magi	-11.915
▁izbito	-11.915
▁coch	-11.915
▁flexibil	-11.9151
▁🇯🇵🌸🏯	-11.9151
▁copleş	-11.9151
uvintele	-11.9151
🌷🌷🌷	-11.9151
▁îndoi	-11.9152
▁transcen	-11.9152
▁relaxă	-11.9152
ensulele	-11.9152
🛷	-11.9152
🦸	-11.9152
🙋	-11.9152
🧜	-11.9152
▁ilustr	-11.9152
🚓	-11.9152
▁☔🌧	-11.9152
▁frecven	-11.9152
X	-11.9153
ăsfățați	-11.9153
troduce	-11.9153
Eficien	-11.9153
âmbetul	-11.9153
6	-11.9153
fashion	-11.9153
🇷	-11.9153
🇹	-11.9153
🇲	-11.9153
🥽	-11.9153
🪖	-11.9153
📂	-11.9153
📥	-11.9153
😿	-11.9153
🚺	-11.9153
🛻	-11.9153
▁porunce	-11.9153
▁sublini	-11.9153
👨🏽‍	-11.9153
🔹	-11.9153
🚭	-11.9153
🛂	-11.9153
🤥	-11.9153
▁clopot	-11.9153
▁declanş	-11.9153
▁increzato	-11.9153
▁indraznet	-11.9153
▁jogging	-11.9153
▁plonj	-11.9153
▁împrospăte	-11.9153
▁👩‍🦳	-11.9153
💿	-11.9153
Ajung	-11.9153
Night	-11.9153
Transformă	-11.9153
Vehicul	-11.9153
bloane	-11.9153
handym	-11.9153
hibiscus	-11.9153
nouţ	-11.9153
oterapie	-11.9153
packed	-11.9153
reliever	-11.9153
smacking	-11.9153
Ä	-11.9153
ățeluș	-11.9153
▁Accesori	-11.9153
▁Alimente	-11.9153
▁Arcticii	-11.9153
▁Ascuns	-11.9153
▁Atârn	-11.9153
▁Blossom	-11.9153
▁Caraibe	-11.9153
▁Cizme	-11.9153
▁Colosseum	-11.9153
▁Continua	-11.9153
▁Distracţi	-11.9153
▁Eleganț	-11.9153
▁Europei	-11.9153
▁Evadare	-11.9153
▁Everest	-11.9153
▁Faimoas	-11.9153
▁Flamenco	-11.9153
▁Foarfece	-11.9153
▁Grătar	-11.9153
▁Iconic	-11.9153
▁Industri	-11.9153
▁Janeiro	-11.9153
▁Lotusul	-11.9153
▁Magazin	-11.9153
▁Magnoli	-11.9153
▁Naţional	-11.9153
▁Obiective	-11.9153
▁Olimpi	-11.9153
▁Patinaj	-11.9153
▁Picioare	-11.9153
▁Pâine	-11.9153
▁Studi	-11.9153
▁Suedia	-11.9153
▁Summer	-11.9153
▁Temperatur	-11.9153
▁Trandafirul	-11.9153
▁Travers	-11.9153
▁Versatilitate	-11.9153
▁Vibrații	-11.9153
▁acrilic	-11.9153
▁adrenalinei	-11.9153
▁afecțiune	-11.9153
▁agăţat	-11.9153
▁amazoniene	-11.9153
▁ansamblu	-11.9153
▁aplicare	-11.9153
▁arahide	-11.9153
▁argumente	-11.9153
▁autostrăzi	-11.9153
▁baghet	-11.9153
▁bikini	-11.9153
▁binevenit	-11.9153
▁bombard	-11.9153
▁calificare	-11.9153
▁calificaţi	-11.9153
▁calificați	-11.9153
▁caligrafi	-11.9153
▁camaraderi	-11.9153
▁caramel	-11.9153
▁castravete	-11.9153
▁catapult	-11.9153
▁cauciuc	-11.9153
▁central	-11.9153
▁ciocnesc	-11.9153
▁clătin	-11.9153
▁comoditate	-11.9153
▁competenţ	-11.9153
▁compromisuri	-11.9153
▁computer	-11.9153
▁constrângeril	-11.9153
▁contagioase	-11.9153
▁conversație	-11.9153
▁cosiness	-11.9153
▁creioane	-11.9153
▁crăpătură	-11.9153
▁căprioar	-11.9153
▁deciziilor	-11.9153
▁dependent	-11.9153
▁devoţiun	-11.9153
▁diamant	-11.9153
▁direcți	-11.9153
▁distanţa	-11.9153
▁distanță	-11.9153
▁dumneavoastra	-11.9153
▁eficiență	-11.9153
▁enervez	-11.9153
▁epoca	-11.9153
▁epoci	-11.9153
▁erbivor	-11.9153
▁ergonomic	-11.9153
▁europene	-11.9153
▁excentric	-11.9153
▁exterioar	-11.9153
▁fosnet	-11.9153
▁fragilitate	-11.9153
▁frisbee	-11.9153
▁funcţii	-11.9153
▁gimna	-11.9153
▁gravitaţi	-11.9153
▁hamburger	-11.9153
▁imbunatati	-11.9153
▁incomparabil	-11.9153
▁indestructibilă	-11.9153
▁indulgenț	-11.9153
▁inhibiţii	-11.9153
▁inovării	-11.9153
▁integra	-11.9153
▁italian	-11.9153
▁izvoare	-11.9153
▁jalapeno	-11.9153
▁justiţia	-11.9153
▁ketchup	-11.9153
▁lebede	-11.9153
▁leopard	-11.9153
▁limuzin	-11.9153
▁mediteraneene	-11.9153
▁memorabilă	-11.9153
▁mestecat	-11.9153
▁mohorât	-11.9153
▁mozzarella	-11.9153
▁multicultural	-11.9153
▁multitasker	-11.9153
▁nachos	-11.9153
▁neagra	-11.9153
▁nezdruncinat	-11.9153
▁neîmblânzit	-11.9153
▁născut	-11.9153
▁pagină	-11.9153
▁palpabil	-11.9153
▁pistol	-11.9153
▁plâns	-11.9153
▁porumb	-11.9153
▁primavara	-11.9153
▁prinţesă	-11.9153
▁problema	-11.9153
▁profesioniști	-11.9153
▁protecți	-11.9153
▁prăfuite	-11.9153
▁pâlpâi	-11.9153
▁păşun	-11.9153
▁recolt	-11.9153
▁recunostinta	-11.9153
▁renascentist	-11.9153
▁renovare	-11.9153
▁reputaţie	-11.9153
▁rezervor	-11.9153
▁rezervă	-11.9153
▁rezilienţei	-11.9153
▁reziliență	-11.9153
▁rivalități	-11.9153
▁ronțăi	-11.9153
▁rotunzi	-11.9153
▁rucsac	-11.9153
▁rugby	-11.9153
▁russe	-11.9153
▁răcneşte	-11.9153
▁răstoarn	-11.9153
▁răsturnări	-11.9153
▁sanatos	-11.9153
▁saptaman	-11.9153
▁sarbatori	-11.9153
▁scorţişoară	-11.9153
▁secundă	-11.9153
▁situaţia	-11.9153
▁situaţii	-11.9153
▁splendoare	-11.9153
▁strategiz	-11.9153
▁superputere	-11.9153
▁suprafaţ	-11.9153
▁suveniruri	-11.9153
▁sweltering	-11.9153
▁tactil	-11.9153
▁teatral	-11.9153
▁tulpină	-11.9153
▁viguros	-11.9153
▁volumul	-11.9153
▁vânzătorii	-11.9153
▁zilnice	-11.9153
▁zmeu	-11.9153
▁Încălzeşte	-11.9153
▁Încărcăt	-11.9153
▁împădurit	-11.9153
▁încărcare	-11.9153
▁înălțime	-11.9153
▁înălțătoare	-11.9153
▁ţâşn	-11.9153
▁ședere	-11.9153
▁șoapte	-11.9153
▁țopăi	-11.9153
▁🍂🍃🍁	-11.9153
🇻	-11.9153
🎴	-11.9153
🏑	-11.9153
🐏	-11.9153
📀	-11.9153
📔	-11.9153
🔰	-11.9153
🔻	-11.9153
😵‍💫	-11.9153
🚉	-11.9153
🚏	-11.9153
🚼	-11.9153
🟤	-11.9153
🤒	-11.9153
🤱	-11.9153
🥏	-11.9153
🥮	-11.9153
🦧	-11.9153
🧑‍🦱	-11.9153
Nurse	-11.9153
regulat	-11.9153
soccer	-11.9153
▁Fermecăto	-11.9153
▁Patty	-11.9153
▁Redescoperi	-11.9153
▁Satisfă	-11.9153
▁Terapi	-11.9153
▁bolnavi	-11.9153
▁broderi	-11.9153
▁bărci	-11.9153
▁cameleon	-11.9153
▁cavaleri	-11.9153
▁covoare	-11.9153
▁devotamentul	-11.9153
▁elvețian	-11.9153
▁ferigi	-11.9153
▁fragmente	-11.9153
▁francez	-11.9153
▁genunchi	-11.9153
▁gheparzi	-11.9153
▁gâscă	-11.9153
▁incendii	-11.9153
▁instituţi	-11.9153
▁kick	-11.9153
▁mentolat	-11.9153
▁mușchi	-11.9153
▁onorează	-11.9153
▁răscol	-11.9153
▁spaţioasă	-11.9153
▁speranţei	-11.9153
▁spulberat	-11.9153
▁sânge	-11.9153
▁transmise	-11.9153
▁uşă	-11.9153
▁școal	-11.9153
▁🧖‍♀️💆‍♀️💅	-11.9153
👨‍🦰	-11.9153
🛼	-11.9153
Food	-11.9153
▁Nord	-11.9153
▁Povesti	-11.9153
▁bătăli	-11.9153
▁cheamă	-11.9153
▁dureros	-11.9153
▁gratar	-11.9153
▁stupide	-11.9153
▁tropice	-11.9153
🐷	-11.9153
📳	-11.9153
🦺	-11.9153
▁acvari	-11.9153
▁ignor	-11.9153
break	-11.9153
green	-11.9153
▁Cultiv	-11.9153
▁Galeri	-11.9153
▁coarne	-11.9153
▁împlet	-11.9153
🖨	-11.9153
7	-11.9153
OOTD	-11.9153
▁clipită	-11.9153
▁distracții	-11.9153
▁ieder	-11.9153
▁🇦🇷	-11.9153
📃	-11.9153
▁Portret	-11.9153
▁bataie	-11.9153
▁lopat	-11.9153
▁măreție	-11.9153
▁piuliţ	-11.9153
▁țesături	-11.9153
🧍‍♀️	-11.9153
▁Toamna	-11.9153
▁dezleg	-11.9153
▁dispoziţia	-11.9153
▁smulşi	-11.9153
🇪🇺	-11.9153
▁Maker	-11.9153
▁articol	-11.9153
▁cealaltă	-11.9153
▁cladir	-11.9153
▁desfăşurare	-11.9153
▁enigmatică	-11.9153
▁inhal	-11.9153
▁matern	-11.9153
▁hex	-11.9153
▁vărsat	-11.9153
▁păcă	-11.9153
▁calduro	-11.9153
▁învelit	-11.9153
▁Simplific	-11.9153
▁aerisit	-11.9153
▁distanțe	-11.9153
▁studenţi	-11.9153
▁tango	-11.9153
▁Box	-11.9153
▁piesa	-11.9153
▁sanatate	-11.9153
nterna	-11.9153
▁porc	-11.9153
▁înghiţitură	-11.9153
▁🌻😊🌞	-11.9153
Free	-11.9153
▁sexy	-11.9153
▁sutien	-11.9153
▁Sud	-11.9153
▁persistență	-11.9153
▁secetă	-11.9153
▁expert	-11.9153
▁Loial	-11.9153
▁broaşte	-11.9153
▁cleşti	-11.9153
▁împrăştiaţi	-11.9153
▁Apuc	-11.9153
▁gaura	-11.9153
▁Plin	-11.9153
▁driblează	-11.9153
▁simetric	-11.9153
▁îngrijorat	-11.9153
▁Hawaiian	-11.9153
▁yum	-11.9153
▁🌵🏠💚	-11.9153
▁contopi	-11.9153
▁ilustraţii	-11.9153
▁covrig	-11.9153
▁mulţimii	-11.9153
▁importanț	-11.9153
▁inovația	-11.9153
▁lounge	-11.9153
▁imprevizibil	-11.9153
▁raliu	-11.9153
▁🌻❤️🌞	-11.9153
▁flirt	-11.9153
▁gasi	-11.9153
▁înconjurător	-11.9153
Rainy	-11.9153
▁City	-11.9153
Tehnologi	-11.9153
▁Carne	-11.9153
▁rotativ	-11.9153
eatrul	-11.9153
▁Asigurați	-11.9153
🤸🏽‍♀️	-11.9153
▁medicină	-11.9153
▁☀️☀️☀️	-11.9153
▁surubelnit	-11.9153
▁🍣🐟🥑	-11.9153
gger	-11.9153
▁dedicaţi	-11.9153
▁frecvenţă	-11.9153
👦🏻👧🏻	-11.9153
▁global	-11.9153
▁zbură	-11.9153
▁reţin	-11.9153
▁crengi	-11.9153
ortăreaţ	-11.9153
👨‍👩‍👦	-11.9153
▁conțin	-11.9153
▁chesti	-11.9154
▁👩‍🚀	-11.9154
▁buggy	-11.9154
▁personalități	-11.9154
▁Uscător	-11.9154
▁corespunzător	-11.9154
▁balenele	-11.9154
▁porţi	-11.9154
▁globul	-11.9154
▁instalare	-11.9154
▁plasă	-11.9154
👰🤵	-11.9154
▁picurat	-11.9154
▁🏒⛸️	-11.9154
▁proprietar	-11.9154
▁vindecătoare	-11.9154
▁🥾🗻	-11.9154
goers	-11.9154
▁oţel	-11.9154
▁turiști	-11.9154
▁fermierilor	-11.9154
▁înveselit	-11.9154
▁bunătăți	-11.9154
▁📱🔌	-11.9154
vroom	-11.9154
▁motoarel	-11.9154
▁convenţii	-11.9154
▁literatur	-11.9154
▁măreţia	-11.9154
▁swe	-11.9154
▁trimiţ	-11.9154
▁🐍🌿	-11.9154
▁swoosh	-11.9154
▁polen	-11.9154
▁excepțional	-11.9154
👭👫👬	-11.9154
▁Precizia	-11.9154
▁suferinţ	-11.9154
▁regiuni	-11.9154
▁🥞🥓	-11.9154
▁grani	-11.9154
▁Delicios	-11.9154
🧔‍♂️	-11.9154
▁Barc	-11.9154
▁gheata	-11.9154
▁Prefer	-11.9154
▁răs	-11.9154
▁eternitate	-11.9154
▁stralucitor	-11.9154
▁Scoate	-11.9155
▁etal	-11.9155
▁rostogolit	-11.9155
▁Coace	-11.9155
▁producător	-11.9155
▁Realiz	-11.9155
▁compoziţi	-11.9155
👩‍👩‍👦‍👦	-11.9155
soft	-11.9155
🤵‍♂️	-11.9155
▁multitudin	-11.9155
▁țestoas	-11.9155
▁înguste	-11.9155
▁Samb	-11.9155
Drive	-11.9155
▁mentin	-11.9155
▁închinători	-11.9155
▁geant	-11.9155
ăierea	-11.9155
▁rivali	-11.9155
▁înfricoşătoare	-11.9155
▁cortul	-11.9155
▁cărui	-11.9155
▁Chas	-11.9155
▁norocoasă	-11.9155
▁polua	-11.9155
▁Vultur	-11.9156
▁🍣🍚🥢	-11.9156
▁adapteaz	-11.9156
▁Urma	-11.9156
▁🚜🌾	-11.9156
▁băl	-11.9156
▁umbrit	-11.9156
▁inocen	-11.9156
▁🧥🔥❄️	-11.9156
▁anten	-11.9156
▁magician	-11.9156
▁meteo	-11.9156
▁acasa	-11.9156
▁răsare	-11.9156
pătrun	-11.9157
▁totalitate	-11.9157
▁săruturi	-11.9157
👙🍹🌴	-11.9157
▁mobilă	-11.9157
▁Rom	-11.9157
ggy	-11.9157
▁Pasiune	-11.9157
▁înzăpeziţi	-11.9158
▁💔😔😢	-11.9158
▁🍣🍱🥢	-11.9158
▁pled	-11.9158
▁apetit	-11.9158
▁necazuri	-11.9158
▁🚗💨🏎️	-11.9158
▁Învățare	-11.9158
▁monstruoase	-11.9158
▁🌮🔥🌶️	-11.9158
▁Poezi	-11.9158
▁deschizător	-11.9158
▁spălătorie	-11.9158
▁psihologie	-11.9158
▁prostuţ	-11.9158
▁rame	-11.9158
▁accelerat	-11.9158
▁vorbească	-11.9158
▁🏊‍♀️🏊‍♂️	-11.9158
▁aburitoare	-11.9158
▁ghideze	-11.9159
▁🇯🇵👘	-11.9159
▁suprafeţe	-11.9159
▁⛵🌊	-11.9159
▁👴🏼	-11.9159
▁💔😢😔	-11.9159
🧒🏼	-11.9159
▁👩‍⚕️❤️🏥	-11.9159
▁trosnituri	-11.9159
▁Cruisin	-11.9159
▁revoluţionare	-11.9159
osete	-11.9159
▁flipping	-11.9159
▁🥑🍞🍳	-11.9159
▁melodice	-11.9159
▁împuternicit	-11.916
▁capăt	-11.916
👨‍✈️	-11.916
▁stocare	-11.916
🔴⚪	-11.916
▁pini	-11.916
▁majoreta	-11.916
▁facultate	-11.916
▁☁️🌫️	-11.916
▁🐬🐳	-11.916
▁promit	-11.916
▁🧘‍♀️🕉️	-11.916
▁Nepotul	-11.916
alism	-11.9161
🌴👙🌊	-11.9161
🏃🏽‍♀️	-11.9161
▁Inova	-11.9161
✨🏢🌆	-11.9161
▁mulțumire	-11.9161
▁Înălţim	-11.9161
🕹️🎮	-11.9161
▁Legătur	-11.9161
▁înoate	-11.9161
▁mulțumesc	-11.9161
▁☁️🌥️	-11.9161
▁Plă	-11.9162
▁☕⏰😴	-11.9162
▁Complet	-11.9162
▁Notre	-11.9162
▁deschiz	-11.9162
▁zdrobind	-11.9162
▁umorului	-11.9162
▁🍜🥢	-11.9162
▁💻🌐	-11.9163
👂🏼	-11.9163
▁conf	-11.9163
▁considerat	-11.9163
💅🏼	-11.9163
🍅🥒	-11.9163
▁👣⛰️	-11.9163
▁🎨🔳	-11.9164
⛰️🌲🥾	-11.9164
▁balansează	-11.9164
▁spital	-11.9164
▁🪛🔧	-11.9164
▁Întoarce	-11.9164
▁existenţei	-11.9164
▁🍂🍁🍂	-11.9164
▁Bundl	-11.9165
▁🦉🌙	-11.9165
▁susţinut	-11.9165
🌯🍲	-11.9165
▁💔😢💔	-11.9165
▁arcuite	-11.9165
▁🥪🧀	-11.9165
▁declarații	-11.9165
thing	-11.9165
▁ştiri	-11.9166
🛡️🏹	-11.9166
▁treburile	-11.9166
▁înțeles	-11.9166
➕➖	-11.9166
yot	-11.9166
▁eliberare	-11.9166
▁flamingo	-11.9167
▁🇫🇷🏰	-11.9167
▁uşi	-11.9167
😷🏥	-11.9167
🍸🍹	-11.9167
▁hranei	-11.9168
▁🐬🎮	-11.9168
▁accesibile	-11.9168
▁antichitate	-11.9168
▁imaculate	-11.9168
▁neexplorate	-11.9168
▁obisnuite	-11.9168
▁spirale	-11.9168
▁călărit	-11.9168
▁Rolls	-11.9169
▁liliacului	-11.9169
🌊🌊🌊	-11.9169
▁miezul	-11.9169
kk	-11.917
▁inovati	-11.917
▁urcare	-11.917
▁🍂👕	-11.917
▁dulceaţ	-11.917
➡️⬇️	-11.917
▁stilaţi	-11.917
Step	-11.9171
▁întunericului	-11.9171
▁Ferm	-11.9171
viden	-11.9171
setti	-11.9171
▁Cuţit	-11.9171
▁🏍️💨🛣️	-11.9171
▁🇮🇹🏰	-11.9171
🛀🕯️	-11.9171
▁așteptări	-11.9172
▁🖥️🎨	-11.9172
▁mixt	-11.9172
▁gândim	-11.9172
▁spectaculoasă	-11.9172
▁spirală	-11.9172
▁Păr	-11.9172
▁✨⛪	-11.9172
▁opulenţ	-11.9172
▁frustrant	-11.9172
▁agitați	-11.9172
asking	-11.9172
🌲🏔️	-11.9173
▁adunare	-11.9173
▁iaz	-11.9173
▁🌸💮	-11.9173
▁🍳🔪	-11.9174
🏯🕌	-11.9174
💄💅	-11.9174
▁🌬️🧥	-11.9174
💁‍♀️💇‍♀️	-11.9174
🚴‍♂️🚴‍♀️	-11.9174
▁lungime	-11.9175
▁densă	-11.9175
elevizorul	-11.9176
▁🎨🧑‍🎨	-11.9176
▁zec	-11.9176
🌆🏢	-11.9176
🍅🥕	-11.9176
▁stilist	-11.9176
▁subtil	-11.9176
▁Chem	-11.9177
▁🏢📐	-11.9177
dream	-11.9177
▁⚡🔩	-11.9177
▁blat	-11.9177
🍓🥥	-11.9177
🥾🎒	-11.9178
▁🍽️🍷	-11.9179
▁Aplauze	-11.9179
▁Pijama	-11.9179
▁kimono	-11.9179
▁decizie	-11.9179
▁🎱	-11.9179
🌡️💊	-11.9179
▁retet	-11.9179
💓💘	-11.9179
chic	-11.9179
▁carnavalului	-11.918
▁iubim	-11.918
:)	-11.918
▁navete	-11.918
▁cunoaștere	-11.9181
▁🦁🐾	-11.9181
▁simplific	-11.9181
▁cartierului	-11.9181
▁🏙️👨‍🎨	-11.9181
▁🌇🏢	-11.9182
▁împachetez	-11.9182
▁hoinăresc	-11.9182
▁gigantic	-11.9182
▁circ	-11.9183
▁concentrez	-11.9183
👏🏽	-11.9183
🌶️🥩	-11.9183
▁amplificator	-11.9183
▁împărtăşim	-11.9184
🍉🕶️	-11.9184
▁Îmbarca	-11.9184
▁🏛️🗿	-11.9184
▁🌲🏡	-11.9185
▁🌅🏖️😌	-11.9185
▁vafe	-11.9185
▁🤗💞	-11.9186
▁Cactus	-11.9187
▁admirabil	-11.9187
▁🌟👖	-11.9187
▁trecători	-11.9187
▁💪🏃‍♀️	-11.9188
▁universităţi	-11.9188
▁disc	-11.9188
▁🌿🧪	-11.9188
▁biciui	-11.9189
▁atracții	-11.9189
👨‍⚕️🏥	-11.919
▁🏙️🏢💼	-11.919
▁caracterizat	-11.9191
▁🏍️🏔️	-11.9191
▁plasate	-11.9191
▁ghemuiri	-11.9191
Spirit	-11.9192
▁Mini	-11.9192
▁eucaliptului	-11.9192
work	-11.9193
▁☕😌	-11.9193
▁abrupte	-11.9193
▁agricole	-11.9193
▁adaptabile	-11.9193
▁jurnalismul	-11.9194
▁Verişoar	-11.9194
▁contabil	-11.9194
▁vorbind	-11.9196
▁🍽️🔪	-11.9196
🏊🏻‍♀️	-11.9196
▁☕⚙️	-11.9196
ction	-11.9196
▁cip	-11.9196
💄👗	-11.9197
▁imper	-11.9198
▁țes	-11.9199
▁drepturi	-11.9199
▁Veşti	-11.9199
▁ocupați	-11.9199
▁🎶🖌️	-11.92
▁indivizilor	-11.92
▁👴👵📚	-11.9201
▁ado	-11.9201
👟💃	-11.9201
▁deliciul	-11.9202
▁Încet	-11.9203
▁📚🍵	-11.9203
🕯️📖	-11.9203
▁Mondială	-11.9204
▁dantelă	-11.9204
▁mediteraneană	-11.9204
▁📷❄️	-11.9205
🏥👩‍⚕️	-11.9205
👩‍💼💼	-11.9205
▁creaţie	-11.9205
▁datelor	-11.9206
▁😍👕	-11.9206
▁🍕🍴	-11.9206
▁reziste	-11.9207
▁aventurierilor	-11.9207
▁frunză	-11.9209
▁împrăştiat	-11.921
▁periuț	-11.921
▁🏰📜	-11.921
🙌🏼💪🏼	-11.9211
▁respirati	-11.9211
▁👨‍🍳🍽️🎨	-11.9211
▁🐅🔥	-11.9211
▁omului	-11.9212
▁gândurilor	-11.9213
👏🏼😍	-11.9213
Class	-11.9214
▁mamă	-11.9214
🎢🎡	-11.9214
▁Sus	-11.9214
▁🏛️🏛️	-11.9214
▁Fla	-11.9214
▁☀️👙	-11.9214
▁existenţ	-11.9216
👦🧒	-11.9216
arnă	-11.9216
💼📦	-11.9216
🔨✂️	-11.9217
🌦️👀	-11.9218
🏠🆒	-11.9218
mpanii	-11.9219
▁livrat	-11.9219
▁copilăr	-11.9219
▁înfloriţi	-11.9219
▁enorme	-11.9219
▁literare	-11.9219
▁încăpățânate	-11.9219
▁strategice	-11.922
▁☀️🏖️😎	-11.922
tusa	-11.9221
▁🧥💤	-11.9221
▁decapotabile	-11.9221
▁❤️👨‍👩‍👧‍👦	-11.9221
▁🌵⏰	-11.9222
▁distin	-11.9223
🌈🦄	-11.9223
🥇👏	-11.9223
👠👜	-11.9224
🐠🐡	-11.9224
utice	-11.9225
🐝🍯	-11.9225
▁harului	-11.9225
💰💎	-11.9226
▁Împacheta	-11.9226
tribut	-11.9227
▁vulturul	-11.9228
🧭🗺️	-11.9229
▁📸❄️	-11.923
rger	-11.9231
▁🏛️🕰️	-11.9231
⛵🌅	-11.9231
😔😞	-11.9232
▁uzur	-11.9232
▁🏖️🌊🌞	-11.9232
▁reuşit	-11.9233
▁artiştilor	-11.9233
▁💃🌃	-11.9233
▁Har	-11.9234
▁economic	-11.9234
▁Pad	-11.9235
▁Găsiţi	-11.9235
▁revigorat	-11.9235
▁🌸💜	-11.9236
▁🙏❤️😊	-11.9236
▁generoas	-11.9237
▁🍗🔥	-11.9237
🏟️⚽	-11.9237
🧘‍♀️🧘‍♂️	-11.9238
▁stăpânire	-11.9238
🌍✈️	-11.9241
▁preţuiţi	-11.9241
yd	-11.9243
▁Cant	-11.9244
▁🌵🌿😍	-11.9244
▁reflectorizante	-11.9244
▁🦚🌈	-11.9244
▁🏀🏆	-11.9246
▁👵👴❤️	-11.9249
▁autenticitate	-11.9249
▁☕📖	-11.9249
▁devora	-11.925
▁stropesc	-11.9251
suportat	-11.9252
▁🌼🌿	-11.9253
🏡🌻	-11.9253
▁furie	-11.9253
imineața	-11.9253
🏛️🤯	-11.9257
▁Maiestuoşi	-11.9257
▁grind	-11.9257
▁considerate	-11.9258
▁uluit	-11.9258
▁sincronizare	-11.9258
▁🌊🏞️	-11.926
▁jeleu	-11.926
▁🏛️🎭	-11.926
▁îmbogăţ	-11.9261
▁document	-11.9263
▁🚗🗺️	-11.9264
▁perfecţion	-11.9264
▁Începeţi	-11.9265
▁publicului	-11.9266
😢😄	-11.9266
🦜🏞️	-11.9268
▁📚🏰	-11.9268
Descoper	-11.9268
▁supraîncărcare	-11.9269
💃🏻👗	-11.9271
Chef	-11.9272
▁emblematice	-11.9272
▁mexicane	-11.9272
▁lovindu	-11.9272
▁Satisface	-11.9274
▁🌧️🌸	-11.9274
▁mentale	-11.9274
▁salveze	-11.9274
duit	-11.9274
▁sosuri	-11.9275
▁transportului	-11.9275
🎓🏫	-11.9276
▁cerut	-11.9276
▁evenimentelor	-11.9278
▁obișnuite	-11.928
▁dându	-11.928
🔮💎	-11.9282
🪶🌟	-11.9282
👩‍🍳🌶️	-11.9285
ționale	-11.9286
▁abordez	-11.9286
▁Ferăstrău	-11.9287
▁AC	-11.9288
▁urez	-11.9288
▁tax	-11.9288
🗣️👥	-11.9291
▁nunţi	-11.9294
💪🕹️	-11.9296
toasă	-11.9296
▁hack	-11.9296
▁paşi	-11.9299
▁🍔🔥	-11.93
gging	-11.93
▁insular	-11.9301
➰😍	-11.9301
🙏🧘‍♀️	-11.9301
▁trenuri	-11.9301
🇮🇹🍝	-11.9303
▁ştiut	-11.9304
▁livrare	-11.9304
▁concuren	-11.9308
▁lentile	-11.9308
▁tufişuri	-11.9309
▁calcule	-11.9309
▁emit	-11.931
✈️📸	-11.9311
Dame	-11.9314
🌀🌪️	-11.9314
▁ooz	-11.9315
▁colectare	-11.9315
😩😫	-11.9316
▁🏃‍♀️💨💪	-11.9317
▁🗿✨🎨	-11.9319
▁🎾💪	-11.9319
▁general	-11.9319
▁modelate	-11.9324
▁gratie	-11.9324
📈🔝	-11.9324
▁fraz	-11.9324
▁🌧️🌈	-11.9325
line	-11.9325
▁🔥🌲	-11.9326
▁bug	-11.9327
🔍✍️	-11.9327
▁⛪🌈	-11.9328
▁🏞️🌅	-11.9328
▁alergări	-11.9328
🤘😎	-11.9329
🏔️⛺	-11.933
▁🏢🎨🌈	-11.933
▁agitare	-11.9333
▁armă	-11.9333
▁proiectarea	-11.9335
▁zgârieturi	-11.9336
🔥🥶	-11.9337
🥰🤗💕	-11.9337
▁slăbire	-11.9338
🐟🌿	-11.934
▁🏛️🌍	-11.9343
▁echilibrez	-11.9348
▁Aw	-11.9349
▁Jocuri	-11.9352
▁încercați	-11.9352
🌬️🛣️	-11.9353
▁🌈🌧️	-11.9353
💁‍♀️💼	-11.9354
▁🌻☀️😊	-11.9355
🐾🥰	-11.9356
👪💕	-11.9358
▁fată	-11.9361
▁autor	-11.9362
▁premi	-11.9362
▁🏙️🖌️🎨	-11.9363
TO	-11.9364
▁bag	-11.9364
▁🎉💼	-11.9365
▁Mall	-11.9367
🗿🏺	-11.9367
▁💉👨‍⚕️	-11.9372
▁🍣👌	-11.9374
▁🏍️🛣️🌬️	-11.9379
▁Sco	-11.938
▁uniți	-11.938
▁😊☀️	-11.938
▁👕✨	-11.9381
▁minunăţie	-11.9382
▁mirosului	-11.9383
🌼🥰	-11.9384
🛠✨	-11.9384
▁☀️☕	-11.9384
▁🐼❤️	-11.9385
🌴⛰️	-11.9386
▁sting	-11.9387
🌱🏡	-11.9388
😂👯‍♀️	-11.9388
▁colaborare	-11.939
▁Cred	-11.9391
▁eliberând	-11.9395
🪶✨	-11.9396
💁‍♀️💕	-11.9397
💡⚙️	-11.9399
▁melodioas	-11.94
▁🥵☀️	-11.9405
vadă	-11.9406
🌬️🥶	-11.9406
🍝🍴	-11.941
▁🔪🪚	-11.9411
▁roll	-11.9412
▁exercitiu	-11.9413
Dis	-11.9414
ități	-11.9414
fall	-11.9415
▁Oric	-11.9416
▁şcoli	-11.9424
oned	-11.9426
jut	-11.9428
▁garduri	-11.9429
▁lov	-11.9435
▁Flamingo	-11.9436
🧩😌	-11.9452
▁menit	-11.9452
onie	-11.9454
▁❄️🌨️☃️	-11.9457
▁Gre	-11.9459
▁designului	-11.9461
▁schimbări	-11.9462
▁🌲🏠	-11.9462
🎶💖	-11.9462
▁Turnuri	-11.9471
▁ciuguli	-11.9478
▁gesturi	-11.9485
🌸🌸🌸✨	-11.9487
🌅🍞	-11.9488
▁capturez	-11.9489
📖🎨	-11.949
▁aminteşt	-11.9491
▁misiune	-11.9497
▁cocktailuri	-11.95
📺😴	-11.9509
uscator	-11.9509
▁Hr	-11.9509
▁🐅💪	-11.9513
▁boluri	-11.9518
▁ceata	-11.9519
🍌🥤	-11.9519
▁blocuri	-11.9526
▁🏰🌍	-11.9529
🎥📸	-11.9534
🏽🙏🏽	-11.9536
pp	-11.9537
⛈️😱	-11.9539
▁🎨🎭🌈	-11.9544
🌼🌺🌻	-11.9547
😌💆‍♂️	-11.9548
🌮🌯	-11.9557
▁Organizator	-11.9558
▁statu	-11.9562
▁🛋️😴	-11.9571
▁blocare	-11.9573
▁canal	-11.9582
▁Parc	-11.9587
▁pierderi	-11.9591
▁☀️🌻🌈	-11.9592
▁acoperişuri	-11.9594
▁Pop	-11.9596
🏠👪	-11.9602
▁Camp	-11.9604
🧥🌨️	-11.9605
🌫️🏠	-11.9614
▁🌹💖	-11.9622
👩‍🍳⏰	-11.9623
▁şedinţe	-11.9624
lazer	-11.9625
🌡️🏥	-11.9631
🏢🏗️	-11.9631
🎯🏆	-11.9637
👬👭	-11.9638
▁fete	-11.9638
▁🏐🔥	-11.9649
▁reale	-11.9652
🍃🧘‍♀️	-11.9653
▁Adăugare	-11.9655
☮️🙏	-11.9656
▁rănit	-11.9672
llis	-11.9673
▁🏝️🌴	-11.9673
💆‍♂️💆‍♀️	-11.9675
▁provocand	-11.9675
🎭🖌️	-11.9678
📷🌅	-11.9679
▁dispu	-11.9693
▁🏢💡	-11.9696
▁satisfăcut	-11.9697
▁transformări	-11.9706
💃💅	-11.9712
▁☕🥰	-11.9713
▁🏙️🌆✨	-11.9713
▁dorințe	-11.9716
▁economie	-11.9727
▁Navigare	-11.9734
😔➡️	-11.9738
▁☀️🌸🌼	-11.9739
stăpânit	-11.9743
▁Încărca	-11.9747
🌬️💆‍♀️	-11.975
🎨🏺	-11.9752
💼🌎	-11.976
Sărbătoriţi	-11.9766
▁Zdrobire	-11.9772
▁predare	-11.9775
▁biroul	-11.9777
▁🔥💼	-11.9783
💛💐	-11.9795
🙏💆‍♀️	-11.9797
🖌️🌆🌈	-11.98
▁explorator	-11.9804
▁🎥🎬	-11.9806
▁Conecta	-11.9818
AL	-11.9824
▁🧥💕	-11.9825
💐🏵️	-11.9827
🎼🎵	-11.9828
▁💖😊	-11.9833
🧘‍♀️🕊️	-11.984
▁habitatul	-11.9848
🙏💞	-11.9849
▁⚽🙌	-11.9849
gătind	-11.9862
▁Maimuţe	-11.9866
🌟✨💫	-11.9883
▁Cod	-11.9896
▁păstrez	-11.9899
▁accesori	-11.9903
▁🚙⛰️	-11.9905
🎸🎶	-11.9918
🌧️☔	-11.9919
▁expe	-11.9922
▁talentel	-11.9923
▁🧥👖	-11.9925
🐨💕	-11.9931
▁🌻💛🌞	-11.9937
💥🏁	-11.9943
☺️💃	-11.9944
🎉🥂	-11.9953
▁🌻☀️🌻	-11.9959
▁💪💦	-11.9968
▁🌧️💦🌊	-11.9973
▁💼💻	-11.9979
🏀🏟️	-11.9986
💃👖	-11.9986
🆙💪	-11.9987
🤗😁	-11.9995
🏙️🚶‍♂️	-12.0011
▁🤝💕	-12.0016
🎩🌟	-12.0024
▁Statel	-12.003
🏡💆‍♀️	-12.0035
👠💃	-12.0036
▁👵🍴	-12.0036
▁dim	-12.0039
▁supravieţuire	-12.004
🥢🍣	-12.0044
🌿🍀	-12.005
ăritul	-12.005
▁afișat	-12.0055
▁bolț	-12.0057
▁teatrul	-12.0064
🍫❄️	-12.0083
fit	-12.0088
▁Dan	-12.0091
🎼🎶	-12.0093
▁împingere	-12.0098
▁efectu	-12.0101
▁studioul	-12.0113
▁mătușil	-12.0123
🏡🛋️	-12.0124
🙌🎓	-12.0129
👅😍	-12.0134
🌳🏞️🌊	-12.014
🏊‍♀️🌴	-12.0141
enz	-12.0145
🛠️🔨	-12.0155
▁funcțional	-12.0163
▁🍉☀️	-12.0191
🏰🌄	-12.0192
🍅🍝	-12.0207
▁Marţ	-12.0212
▁împărtăşind	-12.0223
👨‍🍳🌟	-12.0224
▁popper	-12.0225
▁🚐🌲	-12.0226
🌴🐚	-12.0237
☕🍂	-12.0239
💬💭	-12.0256
stem	-12.0258
✨😍🔥	-12.027
▁înveţ	-12.027
inării	-12.028
🏛️🗺️	-12.0283
aka	-12.0288
▁😔💔😢	-12.0289
▁📚💫	-12.0307
▁😔💭	-12.0314
😓🔥	-12.0337
😅💦	-12.0349
🏯⛩️	-12.0357
▁şo	-12.0369
🔋💚	-12.037
🌻💛🌻	-12.0376
▁îngheţând	-12.0377
âteodată	-12.0379
▁🌸🌬️	-12.0383
🦋🤩	-12.039
⏱️🔥	-12.039
🌍✏️	-12.04
▁Run	-12.0407
sturile	-12.0408
🤝🏼	-12.0416
▁intrare	-12.0424
☔💧	-12.0487
yan	-12.0516
▁🎉🎶💃	-12.0518
☀️🍁	-12.0531
🥓🧀	-12.0533
👋💬	-12.0533
▁interpretă	-12.0534
▁🌞🌳	-12.0545
🌡️🥵	-12.0546
▁ființ	-12.0552
▁Îmbrăţişa	-12.0563
💡🧪	-12.0578
▁Vânturi	-12.0596
▁🇧🇷🎉	-12.0597
nţele	-12.0599
▁🏡🌾	-12.0613
▁înghițit	-12.0618
▁spălând	-12.0644
▁apeluri	-12.0655
▁imbratisar	-12.0659
▁rânduri	-12.068
☀️🌤️	-12.0682
▁🌅🌳	-12.0691
🎞️❤️	-12.072
▁înlocui	-12.0727
mble	-12.0728
▁🙏💪	-12.073
🏻🎉	-12.0753
🌟💫✨	-12.0765
▁ţestoas	-12.077
▁🇯🇵💻	-12.0783
▁înregistra	-12.0787
▁procesul	-12.0803
▁Curse	-12.0817
pompa	-12.0824
▁obosi	-12.0846
💮🏯	-12.0846
😅❄️	-12.0852
🎥🤩	-12.0855
lk	-12.0865
▁Asistent	-12.0865
▁sărbătoreşt	-12.0867
💖😇	-12.0874
🦁🌴	-12.0888
👯‍♂️❤️	-12.0898
🍴👩‍🍳	-12.0899
▁☕🤩	-12.0907
🍱🥢	-12.0911
odată	-12.0941
🖼️🌌	-12.0969
☀️🌙	-12.1015
🏖️🌊👙	-12.102
▁Dans	-12.1027
▁Arm	-12.1033
Arhitectur	-12.1054
🍽️🍴	-12.1056
▁🍪👩‍🍳	-12.1071
▁nectarul	-12.1077
marin	-12.1082
▁program	-12.1108
lce	-12.1111
▁forţ	-12.1116
The	-12.1127
🥕🌽	-12.1145
🏍️💨🌬️	-12.1147
▁Antreprenor	-12.1167
▁funcțion	-12.1177
▁Savureaz	-12.1204
▁🍣🐟	-12.1205
▁Îndrăzn	-12.121
▁prajitur	-12.1216
ființa	-12.1218
🦁🔥	-12.1245
▁stropind	-12.1273
▁mătuș	-12.1277
🍔🥓	-12.1286
▁studio	-12.1287
🥂🎉	-12.1288
🌸🇯🇵	-12.13
▁asist	-12.1303
🏋	-12.1304
🏽💯	-12.1334
▁raton	-12.1363
▁Rol	-12.1364
▁mişc	-12.1393
⛷️🏔️	-12.1405
▁tendinţ	-12.1415
▁aștept	-12.143
▁domin	-12.1438
alurile	-12.1442
▁comand	-12.1451
nţa	-12.15
😕❓	-12.15
🚶‍♀️🎨	-12.1517
▁🚗🌞	-12.1555
🍰🎉	-12.1571
😍👅	-12.1588
▁prețui	-12.1604
▁exemplu	-12.1623
▁lăs	-12.1651
tional	-12.1654
▁lustrui	-12.1661
▁Petrec	-12.1663
▁Gr	-12.1682
▁Zdrobi	-12.1683
▁preda	-12.1699
🔩🪚	-12.171
unetul	-12.1712
💥🌮	-12.1723
sari	-12.1732
▁⚫👗	-12.1739
▁dorinț	-12.1754
▁Fan	-12.1754
zv	-12.1807
🎬😢	-12.1816
▁examen	-12.1841
▁rad	-12.1861
👕👚	-12.1879
▁Pisic	-12.1937
bilă	-12.1945
▁Organiza	-12.1949
▁🇯🇵🎎	-12.1952
▁🖌️🌆	-12.1952
▁Aspira	-12.1954
⛩️🏯	-12.1964
xteriorul	-12.1984
riptura	-12.1996
▁☀️👗💃	-12.1998
▁telespectator	-12.2024
💆‍♀️🧘‍♂️	-12.2047
▁Mec	-12.2051
sculţ	-12.206
▁Moment	-12.2062
▁îmbrăca	-12.2065
▁îndeplin	-12.2067
▁tavan	-12.2082
▁evolu	-12.209
▁arom	-12.2092
▁Biciclet	-12.2092
🍣🥢	-12.2096
▁tin	-12.2112
▁membr	-12.2122
👵🧓	-12.2123
▁recif	-12.2124
▁decapotabil	-12.213
▁Ferăstr	-12.2138
▁reflex	-12.2142
😔😭	-12.2146
▁margaret	-12.2165
▁minunăţi	-12.2176
▁vizion	-12.2185
▁fermier	-12.2188
Călări	-12.2192
▁rezist	-12.2192
▁Lif	-12.2198
limitată	-12.2202
▁părăs	-12.2204
▁🌸🌺🌿	-12.2213
▁👗✂️	-12.2223
🔨🧱	-12.2232
▁vopse	-12.2241
▁motiveaz	-12.2245
▁☁️💦	-12.2254
▁parad	-12.2256
▁tren	-12.2259
gură	-12.2267
▁Inspir	-12.2269
cape	-12.2272
▁tufiş	-12.2273
▁scur	-12.2275
▁competiți	-12.2281
obă	-12.2282
▁îndrăzn	-12.2282
▁strategic	-12.2282
▁spiritual	-12.2292
▁înzăpezit	-12.2292
▁împar	-12.2295
▁trag	-12.2296
▁concentr	-12.2296
izzling	-12.2301
ctând	-12.2301
[...]
